<unk>	0
<s>	0
</s>	0
▁the	-2.86452
,	-3.0265
.	-3.26924
▁to	-3.58648
▁of	-3.74927
s	-3.8214
▁a	-3.83604
▁and	-3.85516
▁is	-4.14666
▁in	-4.35233
▁you	-4.56335
▁it	-4.59507
▁with	-4.74015
▁be	-4.79353
▁not	-4.87446
▁for	-4.89567
ing	-4.89703
▁that	-4.91832
▁can	-4.94721
▁will	-5.01297
▁on	-5.05438
▁are	-5.10818
▁or	-5.14478
▁	-5.16021
▁The	-5.39041
▁from	-5.45013
▁this	-5.45871
▁your	-5.49202
ed	-5.52185
▁as	-5.63724
-	-5.71339
d	-5.8228
▁but	-5.8668
▁which	-5.9871
▁If	-5.98774
▁by	-5.99107
▁an	-6.01291
▁It	-6.01837
▁all	-6.02663
▁at	-6.08535
▁In	-6.09072
ly	-6.09512
▁have	-6.09742
e	-6.11617
▁if	-6.15462
▁so	-6.16244
▁do	-6.1796
'	-6.2026
▁need	-6.22981
▁I	-6.26579
▁such	-6.28397
y	-6.28631
▁time	-6.29602
▁we	-6.30758
▁use	-6.3541
▁make	-6.36645
r	-6.37441
▁then	-6.39783
▁also	-6.40226
▁help	-6.41076
▁more	-6.41352
▁who	-6.41988
▁they	-6.44302
▁only	-6.45413
n	-6.46812
▁there	-6.46997
▁This	-6.50534
▁should	-6.52407
▁"	-6.53528
▁when	-6.53873
▁their	-6.54679
t	-6.54869
▁out	-6.55733
▁about	-6.57162
▁them	-6.57735
▁how	-6.59521
▁other	-6.60691
▁into	-6.61265
▁any	-6.61421
er	-6.64162
▁get	-6.65687
▁A	-6.69022
p	-6.72208
▁necessary	-6.73947
▁has	-6.74526
▁most	-6.74842
▁even	-6.75167
▁To	-6.7585
▁was	-6.77931
▁work	-6.7875
"	-6.80053
l	-6.82132
es	-6.85201
▁And	-6.85294
▁what	-6.85645
al	-6.86402
▁does	-6.87571
▁its	-6.88245
▁For	-6.88509
▁new	-6.88611
m	-6.88832
▁very	-6.88997
en	-6.89276
▁up	-6.91503
▁people	-6.9164
▁may	-6.92471
▁used	-6.92486
▁no	-6.95578
▁But	-6.98685
▁some	-6.98705
▁You	-6.99938
▁well	-7.04287
▁take	-7.05475
▁possible	-7.05647
▁first	-7.06003
▁his	-7.07197
▁without	-7.08989
▁he	-7.08992
▁using	-7.11268
▁high	-7.11394
ous	-7.11662
▁way	-7.12165
▁want	-7.12764
▁process	-7.12831
:	-7.13785
▁like	-7.14245
▁own	-7.15039
▁one	-7.15047
▁must	-7.15204
▁many	-7.16073
▁often	-7.1685
▁our	-7.16952
▁home	-7.19033
▁C	-7.19383
▁better	-7.22224
st	-7.22951
▁after	-7.23915
▁turn	-7.24483
▁S	-7.24535
▁different	-7.25205
▁system	-7.25221
re	-7.25335
▁case	-7.25514
▁same	-7.2578
▁We	-7.26376
’	-7.27092
▁because	-7.28274
▁just	-7.29762
▁important	-7.29769
▁give	-7.30377
c	-7.31434
▁small	-7.32636
▁these	-7.33418
▁When	-7.3346
▁find	-7.33953
▁create	-7.34003
▁B	-7.34181
a	-7.34339
▁water	-7.36968
▁form	-7.37166
▁order	-7.3761
▁see	-7.37654
▁long	-7.38143
▁fact	-7.38758
▁right	-7.39434
ic	-7.39466
▁much	-7.40082
▁product	-7.40716
▁than	-7.40751
o	-7.40975
▁After	-7.41425
▁each	-7.42449
▁special	-7.42712
▁main	-7.43947
▁computer	-7.4519
▁There	-7.45427
▁business	-7.45928
▁As	-7.47017
▁products	-7.47693
▁quickly	-7.48641
▁remove	-7.4959
▁life	-7.49728
▁put	-7.50837
▁made	-7.51862
▁Internet	-7.52517
▁video	-7.52523
▁number	-7.52644
in	-7.52831
▁hands	-7.54254
▁choose	-7.55202
or	-7.55507
▁where	-7.56009
▁lead	-7.56361
▁body	-7.56593
▁device	-7.5698
i	-7.57018
▁information	-7.57169
▁able	-7.58913
▁know	-7.59973
▁several	-7.59979
▁person	-7.60068
on	-7.60128
▁through	-7.6039
▁let	-7.60432
ion	-7.61116
▁go	-7.61846
▁result	-7.62382
▁color	-7.62578
▁large	-7.62701
▁simple	-7.63219
▁place	-7.63469
▁under	-7.63884
▁easily	-7.64142
▁good	-7.6477
▁always	-7.64831
▁-	-7.64919
ar	-7.66996
▁look	-7.67333
▁free	-7.67614
▁vari	-7.67809
▁example	-7.68101
se	-7.68576
▁part	-7.68791
▁end	-7.68802
ve	-7.69212
▁addition	-7.69711
▁lot	-7.69847
▁quality	-7.70655
▁service	-7.70849
▁All	-7.71062
ers	-7.71268
ation	-7.71349
▁were	-7.71933
▁length	-7.72795
▁design	-7.72905
▁try	-7.7298
▁child	-7.73492
▁off	-7.73822
▁cut	-7.73827
▁few	-7.74433
▁mobile	-7.74666
b	-7.75468
▁However	-7.75861
▁show	-7.75868
▁s	-7.7678
▁So	-7.76999
▁due	-7.77301
▁during	-7.77541
▁before	-7.77548
▁How	-7.77554
▁here	-7.77752
▁children	-7.78028
▁worth	-7.78624
▁skin	-7.79512
▁P	-7.79788
▁room	-7.79853
▁thing	-7.81185
▁Ou	-7.81211
▁At	-7.81368
▁already	-7.81543
▁down	-7.81798
g	-7.81926
▁add	-7.81926
▁suitable	-7.82532
▁still	-7.83035
▁over	-7.83537
▁enough	-7.84588
▁Therefore	-7.84588
▁those	-7.84849
u	-7.84849
ur	-7.85819
▁With	-7.8643
▁start	-7.86597
us	-7.86812
;	-7.86962
it	-7.87125
le	-7.8725
▁food	-7.88307
▁pre	-7.88751
▁tell	-7.88851
▁difficult	-7.88917
▁method	-7.8914
▁option	-7.89184
▁re	-7.89641
▁allow	-7.89705
▁yourself	-7.89944
▁problem	-7.89979
▁since	-7.90423
▁On	-7.90539
▁best	-7.91105
▁course	-7.91329
▁world	-7.91329
▁understand	-7.91382
▁itself	-7.91608
▁little	-7.91889
▁him	-7.92169
▁means	-7.92682
▁her	-7.93002
▁list	-7.93497
▁paper	-7.93586
▁become	-7.93705
▁set	-7.93999
▁family	-7.94446
▁templates	-7.95283
▁change	-7.96063
▁cause	-7.96371
▁my	-7.96805
▁Such	-7.98265
ment	-7.98782
▁beautiful	-7.99233
▁taste	-7.99764
▁man	-7.99779
an	-7.99959
▁both	-8.00295
▁come	-8.00353
▁available	-8.00373
▁un	-8.00788
▁type	-8.01306
▁cream	-8.01411
▁event	-8.01474
▁E	-8.01963
▁material	-8.02551
▁read	-8.02743
▁account	-8.02846
▁data	-8.03161
▁did	-8.03328
▁They	-8.03576
▁side	-8.03622
▁experience	-8.03917
▁surface	-8.04158
▁something	-8.04424
▁software	-8.04424
▁sure	-8.04441
k	-8.04531
▁everything	-8.04742
▁allows	-8.0503
▁quite	-8.05386
f	-8.05475
▁share	-8.0603
able	-8.06353
▁would	-8.07
▁open	-8.07608
▁tree	-8.08479
▁install	-8.08777
▁certain	-8.0931
▁serious	-8.10087
▁light	-8.11092
▁cases	-8.11325
▁program	-8.12059
▁me	-8.12552
▁easy	-8.12706
▁brand	-8.1296
▁future	-8.13052
ive	-8.13236
▁think	-8.13359
▁us	-8.13512
▁problems	-8.13704
▁back	-8.1379
ity	-8.14225
▁image	-8.14388
▁site	-8.14445
▁simply	-8.14448
▁hand	-8.14501
▁content	-8.14747
▁questions	-8.14966
▁car	-8.15018
▁clean	-8.15423
▁prepare	-8.15567
less	-8.15692
▁network	-8.15834
▁perfectly	-8.15973
▁M	-8.16335
▁table	-8.16454
twee	-8.166
▁could	-8.1694
▁slow	-8.17076
▁love	-8.17181
▁article	-8.18043
▁separate	-8.18236
est	-8.18386
▁learn	-8.18703
▁another	-8.19126
▁immediately	-8.19137
▁natural	-8.19281
▁care	-8.19449
▁air	-8.19455
el	-8.19494
▁amount	-8.19508
▁customers	-8.19616
▁top	-8.19809
▁check	-8.20206
▁drive	-8.20283
▁level	-8.20354
▁increase	-8.2038
▁while	-8.2061
ro	-8.208
▁power	-8.20983
ri	-8.21003
▁real	-8.21113
ate	-8.2125
▁above	-8.21737
made	-8.21816
▁dry	-8.219
ting	-8.21988
▁T	-8.22207
▁apply	-8.22937
▁glue	-8.23347
▁attention	-8.24032
▁less	-8.24605
▁day	-8.24644
▁useful	-8.25009
▁glass	-8.25106
▁p	-8.25158
▁dish	-8.25494
▁too	-8.25778
▁warm	-8.25985
▁note	-8.25995
▁reach	-8.2604
▁every	-8.26394
▁user	-8.27101
▁around	-8.27313
▁hair	-8.27575
▁oil	-8.27622
▁bring	-8.27816
▁customer	-8.29502
▁options	-8.29573
▁size	-8.29975
▁perform	-8.30001
▁money	-8.3001
▁especially	-8.30012
▁great	-8.30063
▁text	-8.3071
▁provide	-8.30906
▁goal	-8.31362
▁area	-8.31495
▁film	-8.3158
▁ready	-8.31916
▁face	-8.32086
▁draw	-8.32441
▁pay	-8.32477
▁energy	-8.3251
at	-8.32615
ch	-8.3263
▁materials	-8.32902
▁state	-8.33722
▁found	-8.33803
▁now	-8.3387
▁recommended	-8.33969
▁meat	-8.34235
▁fish	-8.3432
ll	-8.34437
▁treatment	-8.34655
▁house	-8.34662
▁similar	-8.35064
▁contact	-8.35498
ent	-8.35621
▁success	-8.35918
il	-8.36242
▁effect	-8.36356
▁keep	-8.3637
▁almo	-8.36724
▁methods	-8.36779
▁women	-8.36807
▁master	-8.36841
▁completely	-8.36949
ol	-8.37064
▁head	-8.37266
not	-8.37649
▁select	-8.37679
▁cold	-8.37694
▁rid	-8.38017
▁woman	-8.3858
▁game	-8.38653
▁reason	-8.38754
▁name	-8.38868
▁desired	-8.39236
▁again	-8.39404
▁additional	-8.39461
▁Christmas	-8.39483
▁application	-8.39571
▁required	-8.39681
▁ways	-8.39975
▁working	-8.40495
▁i	-8.40607
▁F	-8.40829
▁general	-8.40899
▁reduce	-8.41121
▁whole	-8.41131
▁consider	-8.41306
▁tool	-8.41424
▁situation	-8.41433
▁support	-8.41817
ter	-8.421
▁original	-8.42276
▁buy	-8.4236
▁paint	-8.42619
▁Do	-8.42747
▁interesting	-8.42945
▁members	-8.43086
▁remember	-8.43158
▁white	-8.43184
▁prevent	-8.43577
▁personal	-8.4408
▁elements	-8.44595
▁needs	-8.44729
▁impossible	-8.45049
▁control	-8.45055
▁By	-8.45137
▁solution	-8.4527
▁girl	-8.45271
▁apartment	-8.45578
▁point	-8.45809
▁full	-8.45825
▁unique	-8.45987
▁next	-8.46008
▁why	-8.46008
▁together	-8.46009
▁Yes	-8.46031
▁survey	-8.46492
▁Choos	-8.46492
▁speed	-8.46492
as	-8.46665
▁screen	-8.46977
▁Some	-8.47008
▁pain	-8.47343
▁f	-8.47623
▁doctor	-8.47742
▁Now	-8.47965
▁year	-8.48249
▁say	-8.48283
efore	-8.48429
▁chat	-8.48459
▁affect	-8.48539
ir	-8.48645
ul	-8.48692
▁begin	-8.48753
▁access	-8.48932
▁avoid	-8.49091
ness	-8.49138
▁she	-8.49249
▁done	-8.49267
▁search	-8.49463
▁strong	-8.4958
▁move	-8.49625
ther	-8.503
▁appear	-8.50369
▁engine	-8.50736
▁disease	-8.508
▁match	-8.50837
▁Then	-8.50908
▁promote	-8.50946
▁spend	-8.51203
▁talk	-8.51211
▁things	-8.51251
▁bright	-8.51302
▁Also	-8.51456
▁d	-8.51483
▁c	-8.51509
▁old	-8.51962
▁users	-8.5241
▁correct	-8.52669
▁coating	-8.52856
▁window	-8.52893
▁friendly	-8.53061
▁health	-8.53325
▁cooking	-8.5353
▁cable	-8.53547
▁host	-8.5397
▁page	-8.53971
▁complex	-8.54003
▁thousand	-8.54033
▁live	-8.54271
▁inside	-8.54402
▁zero	-8.54556
▁de	-8.54633
▁dishes	-8.54705
ary	-8.54776
▁feel	-8.54795
▁User	-8.54799
um	-8.54877
▁unti	-8.55382
▁recipe	-8.55562
▁vital	-8.55612
▁carefully	-8.55691
▁hard	-8.558
▁sex	-8.5582
▁services	-8.5589
▁laptop	-8.56144
▁enjoy	-8.56145
▁contacts	-8.56677
▁stories	-8.56679
▁step	-8.56846
▁operation	-8.57108
▁broadcast	-8.57216
▁integrate	-8.57545
▁answers	-8.57653
▁black	-8.57775
▁making	-8.57802
▁hot	-8.57811
▁present	-8.57854
▁parts	-8.58149
▁considered	-8.58229
▁floor	-8.583
▁fat	-8.58372
▁programs	-8.58462
▁card	-8.58471
▁selling	-8.58489
▁line	-8.58522
▁easier	-8.58846
▁kind	-8.58859
▁installed	-8.58959
▁determine	-8.59096
▁close	-8.59242
▁prepared	-8.59329
▁conditions	-8.5935
▁devices	-8.59359
▁popular	-8.59369
▁Czech	-8.59396
▁themselves	-8.59396
▁curious	-8.59398
▁New	-8.594
ance	-8.5942
▁return	-8.5954
ry	-8.59911
▁He	-8.59934
▁phone	-8.59948
▁sometimes	-8.59949
▁models	-8.60223
▁low	-8.60346
▁Connect	-8.60504
▁forget	-8.606
▁works	-8.60619
▁rules	-8.6066
▁lower	-8.6068
▁space	-8.61064
▁base	-8.61327
▁ask	-8.61359
▁convenient	-8.61624
▁What	-8.61653
▁colors	-8.61805
▁along	-8.61807
▁social	-8.62189
▁Japanese	-8.62192
▁personality	-8.62225
▁position	-8.62245
▁blood	-8.62758
▁development	-8.62784
▁cleaning	-8.62819
▁leave	-8.62867
ist	-8.63137
▁Custom	-8.63329
▁clarity	-8.63329
▁Full	-8.63329
▁slightly	-8.63362
▁task	-8.63452
▁eyes	-8.63614
▁plant	-8.63759
▁bottom	-8.63904
▁sound	-8.63926
am	-8.64146
▁smartphones	-8.64294
▁plastic	-8.64467
▁Republic	-8.64482
▁inconvenient	-8.64482
▁left	-8.64482
▁write	-8.64482
▁metal	-8.64509
▁click	-8.64525
▁had	-8.64535
▁Fro	-8.64546
▁Ski	-8.64574
▁damage	-8.64764
▁prospects	-8.65063
age	-8.65105
▁installation	-8.65142
▁connection	-8.65169
▁really	-8.65437
▁connect	-8.65454
▁turns	-8.65505
▁store	-8.65533
is	-8.65562
▁creating	-8.65648
friendly	-8.65664
▁view	-8.65665
▁types	-8.65666
▁Most	-8.65676
▁setup	-8.65681
to	-8.65976
▁local	-8.66236
▁located	-8.66236
▁flash	-8.66236
▁entire	-8.66599
▁vers	-8.66712
▁serve	-8.66811
▁View	-8.6683
▁words	-8.67058
▁clicks	-8.6727
ac	-8.67344
▁meetings	-8.67363
▁chicken	-8.67424
▁Sale	-8.67446
nalytics	-8.67521
▁email	-8.67634
ut	-8.678
roid	-8.67816
▁remain	-8.67848
▁diet	-8.68022
▁Price	-8.68022
▁modern	-8.68024
uperior	-8.68024
▁front	-8.68038
▁hosts	-8.68117
et	-8.68145
▁settings	-8.68322
▁longer	-8.68499
▁variety	-8.68625
▁makes	-8.68642
▁appearance	-8.68647
h	-8.68696
▁last	-8.68704
▁Of	-8.6881
ant	-8.68851
▁carpet	-8.68872
▁salt	-8.68888
▁attende	-8.68977
▁becomes	-8.68977
▁attended	-8.69
▁apps	-8.69293
▁believe	-8.69387
▁alcohol	-8.69777
▁stop	-8.69825
Phone	-8.6984
▁enter	-8.69914
▁protect	-8.69967
▁soft	-8.70193
▁approach	-8.70339
ce	-8.70352
▁files	-8.70391
omparison	-8.70433
▁Template	-8.70454
▁unbelievable	-8.70454
▁conferenc	-8.70468
convert	-8.70482
impact	-8.70489
ne	-8.70636
▁changes	-8.70703
▁risk	-8.70733
▁gift	-8.70747
▁features	-8.70829
onferenc	-8.71051
▁media	-8.71072
▁weight	-8.71161
▁offer	-8.71316
ad	-8.71388
▁model	-8.7145
▁including	-8.71692
up	-8.71932
▁question	-8.72026
▁moment	-8.72038
▁applied	-8.72317
co	-8.72321
▁usually	-8.72504
▁plan	-8.72659
▁combination	-8.72954
▁fall	-8.73168
ra	-8.73272
▁save	-8.733
▁red	-8.734
te	-8.7343
▁created	-8.73507
▁cheese	-8.73579
▁specific	-8.73584
im	-8.7374
▁art	-8.73849
▁needed	-8.7402
▁selected	-8.74154
▁treat	-8.74449
▁composition	-8.74603
▁volume	-8.74854
▁baby	-8.74857
▁communication	-8.74858
▁preparation	-8.74871
▁menu	-8.74936
▁desire	-8.74946
▁achieve	-8.75222
▁owner	-8.75259
om	-8.75326
ies	-8.75341
▁style	-8.75371
▁rest	-8.75383
▁D	-8.75416
▁individual	-8.75502
▁shape	-8.75528
▁Many	-8.75531
▁drawing	-8.75752
▁ceiling	-8.75921
me	-8.75995
▁depends	-8.76069
▁choice	-8.76151
▁common	-8.76151
▁lose	-8.76171
▁Japan	-8.76177
▁whe	-8.76528
▁action	-8.7664
▁removed	-8.76774
▁fresh	-8.76784
▁therefore	-8.76818
▁eat	-8.76904
▁age	-8.76907
S	-8.77039
▁human	-8.77466
▁never	-8.77468
id	-8.7747
▁rule	-8.77686
▁stage	-8.77941
▁tools	-8.7804
▁visit	-8.78064
▁temperature	-8.78125
▁everyone	-8.78145
la	-8.78377
▁mode	-8.78474
▁called	-8.78568
▁looks	-8.78675
▁H	-8.78727
▁mass	-8.78754
▁pleasant	-8.78792
▁winter	-8.78796
▁disk	-8.78808
▁non	-8.78883
I	-8.79142
▁cost	-8.79361
▁thin	-8.79404
▁touch	-8.79417
▁short	-8.79463
▁First	-8.79463
▁actions	-8.79686
▁smooth	-8.79909
▁connected	-8.79925
▁soon	-8.80028
▁receive	-8.8006
▁Year	-8.80139
▁center	-8.80139
▁company	-8.80139
▁comes	-8.80204
▁continue	-8.80621
ine	-8.80712
▁milk	-8.80819
▁interior	-8.80819
▁men	-8.80875
▁cutting	-8.80901
ach	-8.80951
▁stretch	-8.81015
un	-8.81018
▁L	-8.8124
tic	-8.81336
▁basis	-8.81504
▁away	-8.81781
▁hold	-8.81959
▁clear	-8.81993
▁online	-8.82019
▁technique	-8.82094
▁fruit	-8.82096
▁half	-8.82193
▁otherwise	-8.82193
▁heat	-8.82343
▁formed	-8.82537
▁price	-8.82786
▁play	-8.8296
▁complete	-8.8307
v	-8.83243
▁eliminate	-8.83283
tion	-8.83307
▁idea	-8.83407
▁plate	-8.83522
▁drink	-8.84171
▁procedure	-8.84226
▁delicious	-8.84291
▁presence	-8.84292
▁Even	-8.84292
▁remains	-8.8473
▁partner	-8.84943
▁patient	-8.84963
▁following	-8.84985
▁button	-8.85687
▁period	-8.85711
▁coffee	-8.85715
▁mind	-8.85716
▁finished	-8.8593
▁require	-8.86136
".	-8.86263
x	-8.86346
▁Re	-8.86359
▁appropriate	-8.86434
▁beauty	-8.86434
▁technology	-8.86435
▁cook	-8.86455
th	-8.86693
▁items	-8.86733
▁correctly	-8.86752
▁b	-8.8684
▁based	-8.86925
▁effective	-8.86959
▁focus	-8.87159
▁sense	-8.87159
▁dark	-8.87653
▁varnish	-8.87889
▁value	-8.8791
▁details	-8.87918
▁below	-8.87972
▁G	-8.87991
▁decorate	-8.8834
▁That	-8.88631
▁cope	-8.88641
▁pick	-8.88641
A	-8.88751
▁others	-8.88894
▁perfect	-8.89139
▁liquid	-8.89365
▁condition	-8.89427
▁fur	-8.89466
▁heart	-8.8951
▁develop	-8.89622
▁symptoms	-8.89689
▁post	-8.89841
▁sharp	-8.89857
▁drugs	-8.89967
▁track	-8.90114
▁once	-8.90153
▁professional	-8.9018
▁pattern	-8.90185
▁file	-8.90207
▁layer	-8.90319
▁ensure	-8.90457
z	-8.90706
▁chocolate	-8.90863
▁depend	-8.90934
▁given	-8.90934
▁photo	-8.90955
▁download	-8.91221
▁usual	-8.91407
▁Since	-8.91621
▁couple	-8.91621
▁nature	-8.91622
▁neck	-8.91623
▁components	-8.91798
na	-8.91903
▁follow	-8.92108
▁O	-8.92115
▁young	-8.92188
▁marketing	-8.92268
▁Here	-8.92483
ia	-8.92604
ag	-8.92821
▁ingredients	-8.92837
ial	-8.92848
▁decide	-8.92856
▁purchase	-8.92973
▁don	-8.93142
▁ordinary	-8.93153
▁performance	-8.93188
▁drug	-8.93302
▁places	-8.93349
rs	-8.93523
▁call	-8.93738
▁grow	-8.93791
▁according	-8.93846
▁kitchen	-8.93929
▁rather	-8.93936
▁build	-8.93955
▁version	-8.94137
▁girls	-8.94346
▁deep	-8.94355
▁likely	-8.94518
ect	-8.94561
▁flow	-8.94637
▁oven	-8.9471
▁document	-8.94823
▁cool	-8.94859
▁occur	-8.94893
▁wear	-8.95234
▁battery	-8.95497
▁practice	-8.95497
▁bad	-8.95522
▁caused	-8.95537
▁fabric	-8.95681
▁helps	-8.95692
w	-8.95803
▁production	-8.95837
di	-8.95981
▁designed	-8.96069
E	-8.96248
▁ideas	-8.9637
▁years	-8.96612
▁act	-8.96736
▁carrie	-8.96812
▁muscles	-8.96832
▁excellent	-8.97094
▁mother	-8.971
▁router	-8.97122
▁sign	-8.97242
ver	-8.97726
▁run	-8.97738
▁reasons	-8.97762
▁choosing	-8.97897
▁favorite	-8.97898
▁lack	-8.97905
▁N	-8.98011
▁structure	-8.98141
▁solve	-8.98168
▁happens	-8.98226
▁ability	-8.98419
▁attract	-8.98458
▁active	-8.98512
▁e	-8.9855
▁huge	-8.98724
▁obtained	-8.98975
▁figure	-8.98989
▁node	-8.99067
▁walls	-8.99209
ill	-8.99258
▁parameters	-8.99357
▁applications	-8.99366
▁himself	-8.9953
▁extreme	-8.9953
▁basic	-8.99532
▁equipment	-8.99534
▁associated	-8.99556
▁stand	-8.99586
▁study	-8.99592
▁standard	-8.99607
▁taken	-8.99781
▁cover	-9.00317
▁unpleasant	-9.00356
▁website	-9.00356
▁role	-9.00357
▁against	-9.00497
▁An	-9.0052
▁diseases	-9.00599
",	-9.00603
ig	-9.00622
▁results	-9.0065
▁wall	-9.00687
▁fully	-9.00764
▁previous	-9.0119
▁transfer	-9.01191
▁opportunity	-9.0203
▁training	-9.02277
▁sp	-9.0229
▁friends	-9.0238
▁manufacture	-9.02384
▁green	-9.02426
▁pieces	-9.02451
▁among	-9.02739
▁advertising	-9.02878
▁having	-9.0288
▁gel	-9.02896
▁school	-9.02924
line	-9.03028
▁directly	-9.03074
ated	-9.03398
▁class	-9.03569
▁mixture	-9.03732
▁positive	-9.03732
▁unusual	-9.03732
▁juice	-9.03734
▁picture	-9.04139
▁animal	-9.04142
▁nail	-9.04144
▁classic	-9.04329
ize	-9.04506
▁subject	-9.04595
▁hope	-9.04605
quality	-9.04618
▁constantly	-9.04707
▁project	-9.04891
▁areas	-9.05026
▁eye	-9.05032
▁piece	-9.05077
▁added	-9.05096
▁practical	-9.05464
▁browser	-9.05464
▁self	-9.05464
▁least	-9.05464
▁country	-9.0547
▁nothing	-9.05473
▁etc	-9.05476
taking	-9.05481
▁traditional	-9.05591
▁t	-9.05599
▁trying	-9.05661
ful	-9.05769
▁sheet	-9.05938
▁improve	-9.06219
▁strength	-9.06238
▁expensive	-9.06341
▁monitor	-9.06341
▁cardboard	-9.06348
▁code	-9.06358
▁potatoes	-9.06376
▁market	-9.06493
one	-9.06559
▁recommend	-9.06824
▁instructions	-9.06882
▁advance	-9.06925
▁pull	-9.06942
▁normal	-9.07012
▁background	-9.07226
▁physician	-9.07226
▁fuel	-9.07232
▁big	-9.07236
▁maintain	-9.07353
▁pass	-9.07607
▁wire	-9.07718
▁frame	-9.08113
▁scarf	-9.08119
▁send	-9.08124
▁selection	-9.08228
T	-9.08284
▁include	-9.0834
▁panel	-9.08659
▁please	-9.08715
▁today	-9.0873
▁going	-9.08751
▁handle	-9.08759
▁break	-9.08992
▁memory	-9.0902
▁sleep	-9.0902
▁further	-9.09045
▁ideal	-9.09164
▁wide	-9.09527
▁edge	-9.09582
▁item	-9.09592
▁replace	-9.09721
▁negative	-9.09929
▁reliable	-9.09937
▁patients	-9.09977
▁lay	-9.0998
▁independently	-9.10052
▁matter	-9.10143
▁operat	-9.1035
▁co	-9.10609
▁W	-9.1068
▁music	-9.1074
ta	-9.10768
▁performed	-9.10824
▁current	-9.10846
▁instead	-9.10846
▁principle	-9.10846
▁sugar	-9.10846
▁comfortable	-9.10865
▁recipes	-9.10933
▁Be	-9.10941
▁gas	-9.10957
▁fruits	-9.10977
▁deal	-9.11032
ions	-9.11091
▁times	-9.1117
▁insert	-9.11374
▁thread	-9.1145
▁consult	-9.11726
▁location	-9.11772
▁living	-9.11777
▁wind	-9.11837
▁mix	-9.11889
ty	-9.12538
▁external	-9.12707
▁ground	-9.12708
▁night	-9.1271
▁motor	-9.12712
▁dust	-9.12716
▁report	-9.12718
▁shades	-9.12759
▁faster	-9.12816
▁test	-9.1316
▁machine	-9.13352
▁section	-9.13355
▁skills	-9.13601
▁creative	-9.1365
▁someone	-9.13752
▁being	-9.13834
▁tips	-9.13872
▁contain	-9.14003
▁begins	-9.14013
▁smell	-9.14314
▁source	-9.14342
▁gentle	-9.14603
▁meet	-9.14927
ure	-9.1501
▁pan	-9.15411
▁known	-9.15501
▁seem	-9.1551
▁combine	-9.15543
▁concrete	-9.15565
▁rice	-9.15565
ized	-9.15665
em	-9.1571
▁sites	-9.15786
lo	-9.16005
ru	-9.16049
▁nails	-9.16069
▁highlight	-9.16146
▁link	-9.16303
▁provided	-9.16414
▁restore	-9.16544
▁office	-9.16599
▁wait	-9.1676
▁covered	-9.17007
▁direct	-9.17257
▁pour	-9.17353
▁address	-9.174
▁loss	-9.17418
ow	-9.17477
▁differ	-9.17483
hi	-9.17491
▁definitely	-9.17515
▁Often	-9.17526
▁carry	-9.17568
▁exactly	-9.1757
▁properly	-9.17676
▁Not	-9.17889
▁harm	-9.18409
▁advice	-9.18505
▁culture	-9.18505
▁notice	-9.18595
▁feed	-9.18819
▁unit	-9.18869
▁days	-9.19079
▁collect	-9.19185
▁sauce	-9.19245
▁crafts	-9.19315
▁profile	-9.19327
▁games	-9.19351
▁password	-9.19506
▁regard	-9.19506
▁rich	-9.19506
▁plaster	-9.19749
▁k	-9.19804
per	-9.20007
▁display	-9.20115
▁field	-9.20355
▁client	-9.2036
▁fix	-9.20362
▁wood	-9.20413
▁far	-9.20509
▁manicure	-9.20516
▁pleasure	-9.20516
▁digital	-9.2055
▁spices	-9.20551
▁interested	-9.20813
▁attached	-9.20882
ping	-9.21138
▁particular	-9.21307
▁diamond	-9.21406
▁decoration	-9.21436
▁knife	-9.21536
▁lemon	-9.21538
▁pressure	-9.21546
▁fire	-9.21561
▁lost	-9.21566
▁audience	-9.21707
ot	-9.219
ally	-9.21985
ical	-9.21999
▁coat	-9.22149
ke	-9.22203
ian	-9.22245
▁fit	-9.22409
▁thick	-9.22444
▁season	-9.22552
▁According	-9.22567
▁knowledge	-9.22567
▁said	-9.22567
▁growth	-9.22586
▁liver	-9.22918
▁suit	-9.23233
▁signs	-9.23297
▁occurs	-9.23364
▁safe	-9.23371
▁con	-9.23443
▁pro	-9.23569
▁maximum	-9.23609
▁anything	-9.2361
▁began	-9.2361
▁tea	-9.23629
▁press	-9.23659
▁clothes	-9.23686
▁however	-9.23714
▁fill	-9.23717
▁healthy	-9.24033
▁path	-9.24146
▁wet	-9.24227
▁meaning	-9.24256
▁tape	-9.24257
▁shade	-9.24608
▁element	-9.24612
▁load	-9.24652
▁looking	-9.25087
ling	-9.25106
▁detail	-9.25285
▁R	-9.25389
▁loop	-9.25678
▁powder	-9.25725
ish	-9.25763
▁function	-9.2578
▁city	-9.25787
▁signal	-9.25865
▁appears	-9.26058
▁later	-9.26071
▁causes	-9.26146
▁w	-9.26147
de	-9.26649
▁sides	-9.26657
▁character	-9.26762
▁box	-9.26802
▁watch	-9.27129
▁stick	-9.27251
▁parents	-9.27295
▁wash	-9.2737
▁cat	-9.27458
vi	-9.27949
ble	-9.28227
▁Hav	-9.28333
▁combined	-9.28348
▁ch	-9.28387
C	-9.28408
lthough	-9.28861
▁tank	-9.28986
▁solid	-9.28987
▁gradually	-9.29011
▁direction	-9.2905
▁author	-9.29067
▁key	-9.2909
▁book	-9.29425
ts	-9.2948
▁ring	-9.29554
▁points	-9.29557
▁attach	-9.29661
▁advise	-9.29794
▁processes	-9.2996
▁Another	-9.30097
▁disappear	-9.30097
▁near	-9.30105
▁sweet	-9.30117
▁either	-9.30217
ast	-9.30259
▁images	-9.30289
qu	-9.30317
▁range	-9.30355
ck	-9.30528
▁came	-9.30619
O	-9.3084
▁tie	-9.30899
▁brush	-9.31107
▁legs	-9.31209
▁yellow	-9.31212
▁Sometimes	-9.31221
▁Despite	-9.31229
▁fine	-9.31269
▁Let	-9.31297
▁root	-9.31298
▁bank	-9.31301
▁am	-9.31335
▁techniques	-9.31383
▁record	-9.31602
▁placed	-9.31809
▁feelings	-9.32093
▁leaves	-9.32138
▁tasty	-9.32357
▁Next	-9.32381
▁stay	-9.32425
by	-9.32514
▁thought	-9.32523
▁past	-9.32543
▁events	-9.32545
▁resources	-9.32804
ip	-9.33074
▁owners	-9.33187
▁physical	-9.33273
▁fast	-9.33295
▁afraid	-9.33507
▁brain	-9.33521
▁team	-9.33622
▁guy	-9.33622
▁block	-9.33623
▁Although	-9.33638
▁advantage	-9.33641
▁purpose	-9.33642
▁dream	-9.33642
▁classes	-9.33658
▁significantly	-9.33687
R	-9.3392
▁allowed	-9.34041
out	-9.34143
▁relax	-9.34211
▁presented	-9.34366
▁photos	-9.34527
po	-9.34583
▁seen	-9.34614
▁effects	-9.34622
▁correspond	-9.34661
▁soap	-9.34672
▁repair	-9.34672
▁specified	-9.34678
▁Use	-9.34699
▁throw	-9.347
▁request	-9.34822
▁holiday	-9.34824
▁regularly	-9.34828
▁described	-9.34854
▁ball	-9.34975
▁funds	-9.35048
▁edges	-9.35126
M	-9.35271
ma	-9.35526
ins	-9.35565
▁familiar	-9.35567
▁starting	-9.35641
▁excess	-9.35816
▁snow	-9.35845
▁daily	-9.35846
▁moisture	-9.35846
▁stress	-9.35847
▁dangerous	-9.3589
▁bit	-9.35917
▁outside	-9.35939
▁protection	-9.35942
▁bowl	-9.35955
▁heating	-9.36027
▁takes	-9.36031
▁relationship	-9.36031
▁cake	-9.36032
▁windows	-9.36077
▁cur	-9.36197
▁flower	-9.36238
▁vegetables	-9.36495
▁remov	-9.366
ng	-9.3661
▁mean	-9.36812
▁bar	-9.36876
og	-9.36958
▁applying	-9.3699
▁activity	-9.37036
▁brown	-9.37036
▁easiest	-9.37036
▁foam	-9.37036
▁Please	-9.3704
▁date	-9.37217
▁zone	-9.3725
▁answer	-9.37266
ence	-9.37353
▁seems	-9.37356
▁measures	-9.37532
▁changing	-9.38241
▁sausage	-9.38241
▁history	-9.38269
▁higher	-9.38285
ating	-9.38303
▁Russian	-9.38323
▁shoes	-9.3839
▁building	-9.38403
▁print	-9.38628
▁walk	-9.38699
▁hang	-9.38701
▁solutions	-9.38896
▁repeat	-9.39058
came	-9.39059
ph	-9.39266
▁produce	-9.3939
▁festive	-9.39461
▁companies	-9.39462
▁sea	-9.39467
▁wonderful	-9.39475
▁viruses	-9.39529
▁dress	-9.39811
▁greater	-9.3985
▁detailed	-9.39924
▁fixed	-9.39948
▁shown	-9.40258
▁obtain	-9.40309
▁driver	-9.40316
▁across	-9.40695
▁atmosphere	-9.40695
▁built	-9.40695
▁nutrition	-9.40695
▁mood	-9.40695
▁countries	-9.40697
▁fluid	-9.40704
▁changed	-9.40717
▁requires	-9.40732
▁texture	-9.40739
▁demand	-9.41179
▁container	-9.41228
▁animals	-9.41348
▁feeling	-9.41519
▁topic	-9.41566
▁sour	-9.41695
coming	-9.41879
▁dried	-9.41946
▁cough	-9.41952
▁Thus	-9.41965
▁Today	-9.41981
▁wooden	-9.42072
▁pet	-9.42138
▁drop	-9.42278
tra	-9.42283
▁infection	-9.4229
▁mo	-9.42361
▁guests	-9.42578
▁situations	-9.42849
▁electric	-9.42902
ving	-9.42923
▁raise	-9.43134
▁pepper	-9.43181
▁cabbage	-9.43211
▁household	-9.43211
▁blue	-9.43212
▁birthday	-9.43213
▁mold	-9.43216
▁package	-9.43218
▁m	-9.43225
▁canvas	-9.43226
▁update	-9.43275
▁payment	-9.43314
▁burn	-9.4333
▁homemade	-9.43467
nt	-9.43584
▁decided	-9.43706
▁bed	-9.43756
wards	-9.4392
▁ends	-9.44077
▁indicate	-9.44193
▁manual	-9.44289
▁fair	-9.4441
▁behavior	-9.44493
▁medication	-9.44493
▁suggest	-9.44493
▁medical	-9.44493
▁middle	-9.44494
▁recommendations	-9.44495
▁fashion	-9.44495
▁icon	-9.44504
▁sort	-9.44534
ff	-9.44586
ick	-9.446
▁De	-9.44687
▁seek	-9.44744
▁language	-9.44878
▁region	-9.44891
▁muscle	-9.44911
▁smartphone	-9.44913
▁ice	-9.4495
ite	-9.44997
▁specialist	-9.45036
▁cells	-9.45154
ai	-9.45222
▁within	-9.45252
▁onions	-9.4549
▁loved	-9.45563
▁extra	-9.45788
▁Thank	-9.45792
▁written	-9.45792
▁road	-9.45792
▁antivirus	-9.45796
▁automatically	-9.45797
▁station	-9.45801
▁V	-9.45829
▁prescribed	-9.45869
▁refuse	-9.45934
▁running	-9.46004
if	-9.46054
▁acquire	-9.46103
▁sew	-9.46227
▁scheme	-9.4623
ct	-9.46353
P	-9.4653
▁limit	-9.46703
▁dis	-9.46867
▁patterns	-9.46977
▁g	-9.4699
▁baking	-9.47108
▁firmware	-9.47108
▁properties	-9.47108
▁street	-9.47108
▁TV	-9.4712
▁fun	-9.47209
▁pages	-9.47325
ted	-9.47388
▁heel	-9.47412
▁copy	-9.47628
▁efforts	-9.47835
▁slowly	-9.47944
set	-9.47988
▁fishing	-9.48107
▁tasks	-9.48156
▁plants	-9.4817
▁factors	-9.48205
▁decor	-9.4836
▁growing	-9.48396
▁preparing	-9.48441
▁universal	-9.48441
▁beginning	-9.48444
▁moving	-9.4845
▁sold	-9.48481
▁scene	-9.48492
▁writing	-9.48492
▁soup	-9.48896
▁feature	-9.48967
br	-9.4922
▁received	-9.49369
▁Dur	-9.49582
▁tone	-9.4964
▁giv	-9.49665
▁adding	-9.49733
▁agree	-9.4976
▁lines	-9.49785
▁Video	-9.49792
▁optimal	-9.49792
▁relevant	-9.49792
▁proceed	-9.49792
▁else	-9.49793
sh	-9.4983
▁knitting	-9.50035
▁roll	-9.50174
▁tissue	-9.50339
▁Co	-9.50367
ative	-9.50496
be	-9.50545
▁interest	-9.50576
▁manufacturer	-9.50628
ever	-9.50738
▁surprise	-9.50879
▁second	-9.50929
tional	-9.50931
▁provider	-9.51023
▁foot	-9.51162
▁increasing	-9.51162
▁communicate	-9.51162
▁switch	-9.51162
▁pure	-9.51201
▁cup	-9.51208
▁removal	-9.51284
au	-9.51388
▁stained	-9.51417
▁blog	-9.51588
▁object	-9.51725
▁purchased	-9.51875
▁sexual	-9.52004
▁Your	-9.52016
man	-9.52298
▁proper	-9.52326
▁desirable	-9.52551
▁nuances	-9.52551
▁thermal	-9.52551
▁internal	-9.52553
▁decision	-9.52555
▁security	-9.52582
▁format	-9.52733
▁collection	-9.5277
cu	-9.52902
▁environment	-9.52939
▁connecting	-9.52949
ha	-9.53053
▁effort	-9.53186
▁vegetable	-9.53188
▁reaction	-9.53194
▁terms	-9.53627
▁Du	-9.53687
ring	-9.53695
."	-9.53867
▁symbol	-9.53896
▁pump	-9.5396
▁dense	-9.5396
▁tube	-9.53962
▁influence	-9.53964
▁networks	-9.54079
▁aroma	-9.54278
▁formation	-9.5443
no	-9.54599
▁force	-9.54618
▁group	-9.5463
▁movement	-9.5473
▁Ma	-9.5476
▁cell	-9.54876
▁spoil	-9.54979
▁flowers	-9.55237
ification	-9.55386
▁absolute	-9.55388
▁Moreover	-9.55388
▁unnecessary	-9.55388
ack	-9.55395
▁characteristics	-9.55408
ization	-9.55423
▁late	-9.55471
▁toys	-9.55535
▁errors	-9.55568
▁mainly	-9.55831
ism	-9.56209
ons	-9.56219
▁Al	-9.56221
ors	-9.56242
▁setting	-9.56256
▁charge	-9.56396
▁adjust	-9.56426
▁stores	-9.56432
▁significant	-9.5661
ge	-9.56635
▁bow	-9.56738
ard	-9.56749
▁public	-9.56792
▁experiment	-9.56837
▁mechanism	-9.56837
▁opinion	-9.56837
▁respond	-9.56837
▁target	-9.56837
▁wife	-9.56837
▁mouse	-9.56838
▁construction	-9.5686
▁spent	-9.56879
▁films	-9.57134
▁finish	-9.57141
j	-9.57228
▁contains	-9.57261
▁hours	-9.57311
▁exercise	-9.57597
▁bo	-9.57748
▁hole	-9.57792
▁documents	-9.57969
▁substances	-9.57999
▁balance	-9.58005
▁accurate	-9.58079
▁fingers	-9.58132
▁wish	-9.58208
▁impact	-9.58222
▁represent	-9.58253
▁absence	-9.58308
▁cardigan	-9.58308
▁happy	-9.58308
▁mirror	-9.58308
▁third	-9.58308
▁throat	-9.58308
▁true	-9.58308
▁numer	-9.58308
▁pork	-9.58308
▁creation	-9.58308
▁thanks	-9.58314
▁spread	-9.58314
▁probably	-9.58315
▁decorative	-9.58316
▁fam	-9.58361
D	-9.58372
▁steps	-9.58388
▁pot	-9.58471
▁minutes	-9.58689
▁St	-9.58746
▁includes	-9.58935
min	-9.59075
▁rod	-9.59099
▁goes	-9.59109
▁closed	-9.59163
▁reduced	-9.59274
os	-9.59295
▁establish	-9.59395
▁sub	-9.59696
▁research	-9.59755
and	-9.5976
▁activities	-9.59801
▁contrary	-9.59801
▁festival	-9.59801
▁paid	-9.59801
▁responsible	-9.59801
▁single	-9.59803
▁orange	-9.59809
▁generator	-9.59821
▁summer	-9.5983
▁colored	-9.59849
ka	-9.60061
▁clearly	-9.60297
▁sports	-9.60322
▁cloth	-9.60483
▁exercises	-9.60527
▁server	-9.60592
bi	-9.6062
▁slices	-9.60626
▁protein	-9.6064
▁message	-9.60647
▁deliver	-9.60718
▁guide	-9.6101
▁drivers	-9.61022
▁systems	-9.6119
▁lacquer	-9.61316
▁stomach	-9.61316
▁wrong	-9.61316
▁distance	-9.6132
▁might	-9.61324
▁dough	-9.61324
▁comfort	-9.61349
▁anti	-9.61527
▁Any	-9.61666
▁prefer	-9.61683
ple	-9.61783
▁friend	-9.62024
▁Us	-9.62027
▁fight	-9.62104
▁gifts	-9.62118
▁measure	-9.62215
▁Ro	-9.62269
▁treated	-9.62283
way	-9.62547
▁happen	-9.62608
▁wants	-9.62626
mo	-9.62657
▁successful	-9.62672
▁artist	-9.6284
▁furniture	-9.62854
▁housing	-9.62854
▁technical	-9.62855
▁confident	-9.62877
▁capable	-9.62884
▁weak	-9.62913
ave	-9.62933
▁shell	-9.62933
▁early	-9.62946
tor	-9.63008
time	-9.63209
▁costs	-9.63221
que	-9.6375
▁carpets	-9.63773
▁resource	-9.63803
▁word	-9.63809
▁adapt	-9.63816
▁buying	-9.63828
ain	-9.63836
▁increased	-9.641
▁board	-9.64157
▁careful	-9.6424
▁processing	-9.64278
do	-9.64288
▁drying	-9.64392
▁bulk	-9.64417
▁pencil	-9.64417
▁trust	-9.64417
▁severe	-9.64417
▁travel	-9.64417
▁born	-9.64427
▁dosage	-9.64429
▁pair	-9.64435
▁gain	-9.64474
▁tightly	-9.64576
▁installing	-9.6483
ud	-9.6483
▁produced	-9.64876
▁threads	-9.64967
▁suffer	-9.65248
▁processor	-9.65254
▁objects	-9.6532
▁Mo	-9.65322
▁evening	-9.65351
▁stone	-9.65402
▁chance	-9.65425
step	-9.65434
▁figures	-9.65461
▁visual	-9.65775
▁painted	-9.6581
▁land	-9.65862
▁bridge	-9.66004
▁flour	-9.66004
▁hidden	-9.66004
▁mouth	-9.66004
▁vibrator	-9.66004
▁official	-9.66004
▁felt	-9.66004
▁broth	-9.66004
▁functions	-9.66061
▁presentation	-9.66137
▁upper	-9.66165
▁opening	-9.66461
ba	-9.66491
▁vitamins	-9.66524
▁decorated	-9.66669
ten	-9.66685
▁gr	-9.66865
▁manufacturers	-9.66985
▁arise	-9.67056
▁receiv	-9.67319
▁final	-9.67402
▁wool	-9.67513
▁birth	-9.67614
▁major	-9.67617
▁expand	-9.67617
▁microwave	-9.67617
▁opposite	-9.67617
▁spray	-9.67617
▁understood	-9.67617
▁skirt	-9.67617
▁hide	-9.67617
▁behind	-9.67619
▁push	-9.6763
▁pile	-9.67661
▁Un	-9.67679
oc	-9.67686
▁thoroughly	-9.67689
▁height	-9.67698
ward	-9.67708
▁learned	-9.67773
▁thinking	-9.67881
▁Well	-9.67897
▁emotions	-9.67927
▁hat	-9.68047
▁frying	-9.68105
▁pictures	-9.68477
▁lips	-9.68634
▁No	-9.68644
▁mixer	-9.68653
▁difference	-9.68715
▁filter	-9.68731
▁confirm	-9.68798
▁explain	-9.68851
ew	-9.68871
▁letter	-9.68889
▁smoke	-9.68953
▁round	-9.68998
les	-9.69023
▁garlic	-9.69256
▁sprinkle	-9.69256
▁motherboard	-9.69265
▁cap	-9.69306
▁story	-9.69313
▁chosen	-9.69319
▁shows	-9.69325
▁sufficient	-9.69339
▁artificial	-9.69385
▁painful	-9.69553
▁She	-9.69586
▁Take	-9.69597
▁channels	-9.69613
▁links	-9.69651
▁lives	-9.69658
▁stages	-9.69721
▁teach	-9.69768
▁talking	-9.70055
▁issue	-9.70154
▁trees	-9.70203
▁discuss	-9.70213
work	-9.70296
▁salad	-9.70392
▁postcard	-9.70398
▁failure	-9.70398
▁washing	-9.70409
▁rooms	-9.70413
ight	-9.70503
▁initial	-9.70688
▁regular	-9.70696
▁independent	-9.70696
cre	-9.70711
▁values	-9.70874
▁contour	-9.70923
▁degree	-9.70923
▁fantasy	-9.70923
▁pregnancy	-9.70923
▁supply	-9.70923
▁wound	-9.70923
▁visible	-9.70923
▁appeal	-9.70923
▁cottage	-9.70925
▁yet	-9.70926
▁stains	-9.70935
▁characterized	-9.7094
▁Try	-9.71006
▁Site	-9.71019
▁related	-9.71169
L	-9.71297
▁interfere	-9.71437
▁effectively	-9.71451
▁started	-9.71787
▁developed	-9.71876
▁express	-9.7197
▁reflect	-9.72002
▁hurt	-9.72108
▁filling	-9.72137
▁dog	-9.7233
N	-9.72356
▁calm	-9.72412
▁dreams	-9.72418
▁purposes	-9.72418
▁efficient	-9.72441
ber	-9.72469
▁rights	-9.72548
ecause	-9.72603
▁carcass	-9.72618
▁conven	-9.72618
▁diode	-9.72618
▁discover	-9.72618
▁female	-9.72618
▁industry	-9.72618
▁minimum	-9.72618
▁possibility	-9.72618
▁potential	-9.72618
▁society	-9.72618
▁traffic	-9.72618
▁gently	-9.72618
▁resort	-9.72618
▁overall	-9.72619
▁contract	-9.72621
▁private	-9.72635
▁boat	-9.72667
▁intended	-9.72711
▁engaged	-9.72764
▁mark	-9.72815
▁involved	-9.72816
▁strengthen	-9.72817
▁multipl	-9.72846
gen	-9.72872
▁reset	-9.7291
▁displayed	-9.73299
ak	-9.73369
▁bi	-9.73383
ging	-9.73754
▁nodes	-9.73759
▁organization	-9.73873
▁students	-9.73904
▁secure	-9.73954
▁essential	-9.74108
▁constant	-9.74115
▁rare	-9.7418
▁li	-9.74267
▁amazing	-9.74342
▁durable	-9.74342
▁fragrant	-9.74342
▁frequent	-9.74342
▁global	-9.74342
▁microphone	-9.74342
▁status	-9.74342
▁cross	-9.74342
▁assembly	-9.74342
▁equipped	-9.74343
▁management	-9.74372
▁harmful	-9.74386
bu	-9.74437
▁tail	-9.7445
▁sent	-9.74567
▁rate	-9.74567
▁sensations	-9.74673
▁wanted	-9.74691
▁connector	-9.74805
▁carrots	-9.74868
▁seller	-9.74969
▁comments	-9.7522
▁damaged	-9.7524
▁movements	-9.75264
▁lift	-9.75336
ug	-9.75351
▁strip	-9.75564
▁platform	-9.75647
▁benefit	-9.75666
izing	-9.75677
▁component	-9.75685
▁tip	-9.75755
▁wheel	-9.75881
▁kiss	-9.75983
▁tab	-9.76045
▁English	-9.76096
▁Perhaps	-9.76096
▁husband	-9.76096
▁response	-9.76096
▁screw	-9.76096
▁smoking	-9.76096
▁flat	-9.76096
▁distinguished	-9.76286
let	-9.76479
▁marks	-9.76556
▁limited	-9.76638
▁iron	-9.7665
▁visitors	-9.76731
▁painting	-9.76799
like	-9.7727
▁paints	-9.77324
▁understanding	-9.77333
▁channel	-9.77495
▁increases	-9.77552
▁balls	-9.77633
ay	-9.77637
ide	-9.77736
▁concept	-9.7783
▁specify	-9.77882
▁beloved	-9.77883
▁lifestyle	-9.77912
▁chest	-9.7793
▁promotion	-9.77944
▁therapy	-9.77952
ual	-9.77964
ator	-9.78013
ium	-9.78057
▁powerful	-9.78069
▁wine	-9.78364
▁issues	-9.78442
▁reading	-9.78618
▁experts	-9.78629
▁decrease	-9.78751
▁nose	-9.78888
▁ears	-9.78918
▁relative	-9.79345
▁delete	-9.7945
▁analysis	-9.797
▁cotton	-9.797
▁diverse	-9.797
▁pregnant	-9.797
▁wardrobe	-9.797
▁everyday	-9.79712
▁laid	-9.79713
▁sit	-9.79716
▁broken	-9.79753
▁herring	-9.79757
▁bend	-9.7977
▁American	-9.79776
▁reality	-9.79844
▁soda	-9.79866
▁forest	-9.79874
▁doing	-9.80059
com	-9.80299
▁sun	-9.80387
▁emphasize	-9.80425
▁corner	-9.80541
U	-9.80967
▁cons	-9.81042
ran	-9.81122
▁miss	-9.81174
▁multi	-9.81303
▁advantages	-9.8144
brought	-9.81552
▁French	-9.81552
▁caviar	-9.81552
▁mortgage	-9.81553
▁storage	-9.81555
uc	-9.81607
▁protective	-9.81643
▁actually	-9.81665
wa	-9.81668
▁Vi	-9.81679
▁accessories	-9.817
▁goods	-9.81719
ious	-9.81774
▁diamonds	-9.81793
▁party	-9.81825
▁contents	-9.81837
▁tried	-9.8184
▁arm	-9.81852
term	-9.81872
▁relatives	-9.81916
▁ho	-9.82003
ery	-9.82009
▁sizes	-9.82097
▁existing	-9.82239
side	-9.82316
▁mixed	-9.82363
▁messages	-9.82376
▁organs	-9.82451
▁served	-9.82498
ability	-9.82701
ie	-9.82959
▁names	-9.83138
▁configure	-9.83163
▁listen	-9.83355
vo	-9.83393
▁worry	-9.83439
▁analyze	-9.83439
▁bought	-9.83439
▁identify	-9.83439
▁narrow	-9.83439
▁nozzle	-9.83439
▁sample	-9.83439
▁session	-9.83439
▁planned	-9.83441
▁row	-9.83441
▁two	-9.83445
▁square	-9.83448
▁Just	-9.83464
▁inform	-9.83474
▁plasticine	-9.83489
▁massage	-9.83492
ice	-9.83602
▁cars	-9.83681
▁cleaned	-9.83694
ular	-9.83704
▁illustrations	-9.83759
va	-9.84009
▁cookies	-9.84015
ier	-9.84037
▁included	-9.84073
ho	-9.84127
▁filled	-9.84174
▁collected	-9.84208
▁contribute	-9.84282
ible	-9.84339
▁projects	-9.84415
fa	-9.84549
party	-9.84568
▁waiting	-9.84916
▁glued	-9.84932
▁absorb	-9.84953
▁acid	-9.8509
▁error	-9.85119
▁blocks	-9.85137
▁thoughts	-9.85169
▁dirt	-9.8517
▁adults	-9.85307
▁Sp	-9.85308
▁orgasm	-9.85362
▁stylish	-9.85362
▁pretty	-9.85362
▁voice	-9.85362
▁boyfriend	-9.85362
▁fear	-9.85362
▁foreign	-9.85363
▁reception	-9.85374
▁restart	-9.85379
▁layout	-9.85381
▁introduce	-9.85429
▁complicated	-9.85435
▁stream	-9.85459
▁difficulties	-9.85476
▁Make	-9.85489
▁port	-9.85539
aw	-9.8571
▁forms	-9.86132
art	-9.86383
▁got	-9.86401
cy	-9.86529
▁asked	-9.86786
▁app	-9.86907
▁conduct	-9.8692
▁appeared	-9.86925
▁module	-9.87099
▁custom	-9.87136
▁masters	-9.8722
▁articles	-9.87233
▁Instead	-9.87323
▁ancient	-9.87323
▁audio	-9.87323
▁context	-9.87323
▁dessert	-9.87323
▁frequency	-9.87323
▁jacket	-9.87323
▁wallpaper	-9.87323
▁leash	-9.87323
▁stock	-9.87323
▁gray	-9.8733
▁stable	-9.87332
▁raw	-9.87336
▁accessory	-9.87342
▁violation	-9.8737
▁attractive	-9.87374
▁inner	-9.8738
▁suddenly	-9.87384
▁bones	-9.874
▁via	-9.87572
▁mail	-9.87575
▁mentioned	-9.876
▁finally	-9.87601
▁anyone	-9.87633
bout	-9.87673
▁Asia	-9.87715
▁strips	-9.878
▁Whil	-9.87907
▁nuts	-9.88104
▁doctors	-9.88186
▁vi	-9.8835
▁stored	-9.88423
▁cooked	-9.88433
ile	-9.88576
▁door	-9.8871
▁specialists	-9.88736
▁affected	-9.88949
▁manage	-9.88975
▁ribbon	-9.89137
▁snack	-9.89138
▁grid	-9.89194
▁director	-9.89259
▁delight	-9.89262
▁Otherwise	-9.89323
▁Through	-9.89323
▁campaign	-9.89323
▁central	-9.89323
▁jewelry	-9.89323
▁steam	-9.89323
▁transparent	-9.89323
▁allergic	-9.89323
▁drill	-9.89323
▁mask	-9.89326
▁bottle	-9.89326
▁synthetic	-9.89329
▁bath	-9.89332
▁climate	-9.89346
▁urine	-9.89357
▁extension	-9.89382
▁cylinder	-9.89398
▁virus	-9.89418
▁sensitive	-9.89447
▁subsequent	-9.89478
▁mom	-9.89493
▁fold	-9.89849
▁happened	-9.8985
ue	-9.90149
▁oils	-9.90165
nder	-9.90168
▁replaced	-9.90207
▁holes	-9.90314
▁subscribers	-9.9053
ang	-9.90554
▁separately	-9.90591
▁offered	-9.90646
▁exist	-9.90666
▁chips	-9.90708
▁forward	-9.90986
▁Con	-9.90987
▁quick	-9.91138
▁attack	-9.91222
▁edit	-9.91285
▁invest	-9.91334
▁shop	-9.91352
▁Remember	-9.91364
▁economic	-9.91364
▁financial	-9.91364
▁speech	-9.91364
▁trouble	-9.91364
▁title	-9.91364
▁refrigerator	-9.91364
▁costume	-9.91364
▁series	-9.91364
▁frozen	-9.91378
▁cleaner	-9.91383
▁specifically	-9.91397
▁proven	-9.91474
oth	-9.91524
▁rubber	-9.91546
▁tuner	-9.91566
▁rep	-9.91741
▁Com	-9.91801
▁sole	-9.9181
▁safely	-9.91814
ub	-9.91835
▁inf	-9.91945
▁compositions	-9.92182
▁drawings	-9.92183
▁soil	-9.92364
▁completed	-9.92374
▁observe	-9.92623
▁expect	-9.93036
▁mistake	-9.93189
▁secret	-9.93358
▁circle	-9.93364
▁ra	-9.93403
▁bag	-9.93409
▁bone	-9.93425
▁High	-9.93444
▁People	-9.93447
▁Tokyo	-9.93447
▁Usually	-9.93447
▁heavy	-9.93447
▁scissors	-9.93447
▁stroke	-9.93447
▁silver	-9.93447
▁double	-9.93447
▁studies	-9.93452
▁blow	-9.93455
▁folk	-9.93455
▁bread	-9.93457
▁precisely	-9.93468
▁safety	-9.9347
▁gun	-9.93471
▁excessive	-9.935
▁star	-9.93545
▁smaller	-9.93569
▁hit	-9.9359
▁playing	-9.93614
▁lesson	-9.93629
▁per	-9.93635
▁thereby	-9.93746
▁went	-9.93803
▁electrical	-9.9391
▁manager	-9.93933
▁string	-9.94007
▁tablet	-9.94213
▁soul	-9.94353
▁players	-9.94604
ory	-9.94856
sil	-9.94894
▁mixing	-9.95165
▁highly	-9.95178
▁guarantee	-9.95269
eat	-9.95375
▁describe	-9.95429
▁convert	-9.95477
wi	-9.95486
▁spouse	-9.95511
▁week	-9.95522
ga	-9.95545
▁characteristic	-9.95552
▁super	-9.95574
▁Chinese	-9.95574
▁advisable	-9.95574
▁conclusion	-9.95574
▁contrast	-9.95574
▁exchange	-9.95574
▁job	-9.95574
▁plug	-9.95574
▁razor	-9.95574
▁species	-9.95574
▁Consider	-9.95575
▁smart	-9.95575
▁doubt	-9.95576
▁manner	-9.95578
▁hook	-9.9558
▁angle	-9.95581
▁hairstyle	-9.95591
▁sticks	-9.95601
▁attitude	-9.95612
▁noticeable	-9.95643
▁circles	-9.95659
▁dance	-9.9566
▁buttons	-9.95664
▁Ex	-9.95673
▁learning	-9.9569
▁enable	-9.95714
most	-9.95719
▁told	-9.95777
▁decorations	-9.95856
▁flu	-9.95975
▁entering	-9.96073
▁turning	-9.96124
▁sell	-9.96258
▁styles	-9.96382
▁fulfill	-9.96566
▁stain	-9.96611
▁achieved	-9.9667
▁J	-9.9684
▁aim	-9.97125
B	-9.9717
▁accept	-9.97312
▁leg	-9.97378
▁log	-9.97384
▁rapid	-9.97519
▁organize	-9.97576
▁cheap	-9.97587
▁straight	-9.97644
▁danger	-9.97667
▁spots	-9.97688
▁Or	-9.97726
▁cuisine	-9.97748
▁default	-9.97748
▁remote	-9.97748
▁valuable	-9.97748
▁varieties	-9.97748
▁voltage	-9.97748
▁habit	-9.97748
▁truly	-9.97748
▁plot	-9.97749
▁transform	-9.97749
▁remind	-9.97749
▁discomfort	-9.9775
▁requirements	-9.97751
▁diagnosis	-9.97751
▁sale	-9.97762
▁international	-9.97762
▁rise	-9.97767
▁replacement	-9.97831
▁throughout	-9.97844
▁folder	-9.97876
▁causing	-9.97908
▁chopp	-9.97922
▁adhesive	-9.97925
▁band	-9.97932
▁rarely	-9.98038
the	-9.98102
▁managed	-9.98181
▁fastening	-9.98295
▁actively	-9.98366
▁beginners	-9.98415
▁boil	-9.98531
▁simplest	-9.98552
▁fly	-9.98781
▁moments	-9.9882
▁butter	-9.99139
▁bear	-9.9915
▁offers	-9.99339
Y	-9.99385
▁realize	-9.99507
▁la	-9.9954
▁shift	-9.99558
▁origin	-9.99584
▁larger	-9.99592
▁met	-9.9961
▁arrange	-9.9963
▁tight	-9.99655
▁recognize	-9.99702
▁bu	-9.99739
ef	-9.99779
▁Wh	-9.99821
▁budget	-9.99971
▁consistency	-9.99971
▁conversation	-9.99971
▁elegant	-9.99971
▁necessarily	-9.99971
▁opportunities	-9.99971
▁provoke	-9.99971
▁extend	-9.99971
▁jump	-9.99971
▁vision	-9.99973
▁planning	-9.99975
▁execution	-9.99982
▁nice	-9.99983
▁pink	-9.99998
▁adult	-10.0003
rank	-10.0004
▁sand	-10.0005
▁spot	-10.0006
▁Pro	-10.0025
▁sca	-10.0028
▁ones	-10.0037
▁tra	-10.0037
our	-10.0052
▁took	-10.0057
▁en	-10.0069
▁law	-10.0079
▁drawn	-10.008
sk	-10.0085
▁pop	-10.0093
▁coming	-10.0102
▁disc	-10.0125
▁heated	-10.0151
▁shoulders	-10.0155
▁eggs	-10.0157
H	-10.0164
▁reveal	-10.0183
▁slide	-10.0187
▁skill	-10.02
▁roots	-10.0209
▁Russia	-10.0209
espite	-10.0223
▁sales	-10.0223
▁delicate	-10.0224
▁dinner	-10.0224
▁facilitate	-10.0224
▁weather	-10.0224
▁disconnect	-10.0225
▁community	-10.0225
▁chair	-10.0225
▁cards	-10.0226
▁extract	-10.0227
▁mental	-10.0227
▁respect	-10.0228
▁emotional	-10.0228
▁impression	-10.0231
▁pipe	-10.0234
air	-10.0243
▁hear	-10.0247
ign	-10.0248
▁plates	-10.0249
▁rear	-10.0264
▁legal	-10.0266
▁accepted	-10.0267
▁seal	-10.0279
▁numbers	-10.0305
ged	-10.0313
eep	-10.0333
ological	-10.0339
▁doll	-10.034
▁My	-10.0347
▁consists	-10.0357
▁kids	-10.0383
▁Cut	-10.0393
▁beautifully	-10.04
▁reviews	-10.0403
▁implement	-10.0412
▁leading	-10.0415
▁matte	-10.0423
su	-10.0431
▁spirit	-10.0437
▁except	-10.0442
▁breast	-10.0457
▁desktop	-10.0457
▁earlier	-10.0457
▁essence	-10.0457
▁rabbit	-10.0457
▁capital	-10.0457
▁exceed	-10.0457
▁foil	-10.0457
▁ignore	-10.0457
▁juicy	-10.0457
▁spoon	-10.0457
▁kitten	-10.0457
ok	-10.0457
▁held	-10.0458
▁developing	-10.0458
▁Add	-10.0461
▁thickness	-10.0462
▁recovery	-10.0465
▁unlikely	-10.0472
▁cancer	-10.0474
▁medicine	-10.0477
▁operator	-10.0486
▁successfully	-10.0493
▁lid	-10.0498
old	-10.0503
▁Note	-10.0512
▁boy	-10.0513
▁U	-10.0514
▁socks	-10.0539
▁ceilings	-10.054
he	-10.0549
▁auto	-10.0599
▁recording	-10.0614
▁mar	-10.062
▁infections	-10.0631
ake	-10.0633
▁Ho	-10.0648
▁launch	-10.0654
▁follows	-10.066
ust	-10.066
▁Y	-10.0664
▁worse	-10.0679
▁bacteria	-10.0684
▁layers	-10.0685
▁rings	-10.0689
▁allergies	-10.0695
▁cholesterol	-10.0695
▁competition	-10.0695
▁creativity	-10.0695
▁driving	-10.0695
▁efficiency	-10.0695
▁morning	-10.0695
▁particles	-10.0695
▁primer	-10.0695
▁schedule	-10.0695
▁segment	-10.0695
▁utility	-10.0695
▁transition	-10.0695
▁tension	-10.0695
▁category	-10.07
▁attribute	-10.0701
▁catch	-10.0701
▁loops	-10.0706
cious	-10.0712
▁flavor	-10.0716
▁indicator	-10.0717
▁trace	-10.0719
▁template	-10.072
▁foundation	-10.0721
▁scan	-10.0726
▁gl	-10.0726
▁compare	-10.0732
▁member	-10.0732
▁clients	-10.0732
▁processed	-10.0733
▁manually	-10.0738
▁particularly	-10.0749
▁forced	-10.0751
▁His	-10.0755
▁sources	-10.0765
▁beat	-10.0785
▁Li	-10.0803
ev	-10.0826
▁knows	-10.0831
ze	-10.0837
▁burning	-10.0838
▁ca	-10.0852
▁fr	-10.086
land	-10.0867
▁updates	-10.0869
▁paste	-10.0886
▁n	-10.09
▁enhance	-10.0909
▁meeting	-10.0911
▁lamp	-10.0914
▁rot	-10.0922
ell	-10.0924
▁cooling	-10.0929
▁comply	-10.0939
▁exhaust	-10.0939
▁perhaps	-10.0939
▁romantic	-10.0939
▁Santa	-10.0939
▁breed	-10.0939
▁description	-10.0939
▁government	-10.094
▁pathology	-10.094
▁hardware	-10.094
amp	-10.094
reducing	-10.0942
▁characters	-10.0944
▁checking	-10.0945
▁Other	-10.0945
▁earn	-10.0947
▁gap	-10.095
▁fillet	-10.0951
▁boxes	-10.0965
▁sofa	-10.0967
▁finger	-10.0969
▁portion	-10.0972
▁darken	-10.0974
▁released	-10.0975
▁accurately	-10.0977
▁cute	-10.0982
hu	-10.0998
▁makeup	-10.1007
▁dose	-10.1012
▁letters	-10.1021
▁appreciate	-10.1027
▁penetrate	-10.1033
ox	-10.1035
▁map	-10.1041
▁carrier	-10.1059
▁groups	-10.1071
▁Fe	-10.1095
▁trip	-10.1103
▁schemes	-10.1105
▁Ver	-10.1113
da	-10.1113
▁drops	-10.1121
board	-10.1126
▁movies	-10.1132
▁count	-10.1137
▁fry	-10.1142
▁zones	-10.1144
ship	-10.1147
▁fans	-10.115
▁experiences	-10.1151
▁lies	-10.1161
▁flavors	-10.1165
▁release	-10.1167
▁Go	-10.1181
▁react	-10.1183
▁Okinawa	-10.1189
▁cocktail	-10.1189
▁delicacy	-10.1189
▁diameter	-10.1189
▁electronic	-10.1189
▁palette	-10.1189
▁policy	-10.1189
▁responsibility	-10.1189
▁technologies	-10.1189
▁medium	-10.1189
▁diesel	-10.1189
▁behave	-10.1189
▁inscription	-10.1189
▁Those	-10.1189
▁China	-10.119
▁herbs	-10.119
▁pollution	-10.119
▁workpiece	-10.1191
▁starch	-10.1192
▁belt	-10.1193
▁formatting	-10.1194
▁fatty	-10.1194
▁exhibition	-10.1197
▁brightness	-10.1199
▁provid	-10.1202
▁mushrooms	-10.1232
▁buyer	-10.1232
▁waste	-10.1236
▁equal	-10.1244
▁sections	-10.1268
▁boiling	-10.1276
▁washed	-10.1284
▁consequences	-10.1289
▁artists	-10.1294
ists	-10.1317
▁greens	-10.1336
▁meter	-10.1337
▁train	-10.1337
▁tri	-10.1338
▁tissues	-10.1342
▁speak	-10.135
▁ex	-10.1368
▁imp	-10.1369
lock	-10.1394
▁relationships	-10.1405
▁passing	-10.1405
▁twist	-10.1412
▁indicators	-10.1421
▁corn	-10.1428
▁pipes	-10.1433
▁threat	-10.1435
▁lo	-10.1436
▁needles	-10.1436
▁Check	-10.1445
▁Children	-10.1445
▁creatine	-10.1445
▁hundred	-10.1445
▁interface	-10.1445
▁banana	-10.1445
▁Unfortunately	-10.1445
▁rush	-10.1445
▁clinic	-10.1445
▁consumption	-10.1445
▁dining	-10.1446
▁bedroom	-10.1446
▁South	-10.1446
▁hostess	-10.1447
▁fan	-10.1447
▁engagement	-10.1448
mong	-10.1449
▁male	-10.1451
▁clearance	-10.1452
▁rain	-10.1458
ities	-10.1461
▁complications	-10.1472
▁delivery	-10.1478
▁initially	-10.1481
▁visually	-10.1483
▁joint	-10.1498
▁cuts	-10.1501
▁ten	-10.1503
▁Th	-10.1524
ath	-10.1525
▁song	-10.1539
car	-10.1576
qui	-10.1587
▁pin	-10.1597
▁creates	-10.1604
spect	-10.1609
W	-10.165
▁laying	-10.1663
▁surfaces	-10.1664
ily	-10.1666
▁delay	-10.1667
▁needle	-10.1681
▁preserve	-10.1685
for	-10.1691
▁lie	-10.1703
▁automatic	-10.1708
▁Information	-10.1708
▁childbirth	-10.1708
▁culinary	-10.1708
▁gadget	-10.1708
▁latter	-10.1708
▁lubricant	-10.1708
▁possess	-10.1708
▁thyroid	-10.1708
▁Claus	-10.1708
▁antenna	-10.1708
▁brick	-10.1708
▁earrings	-10.1708
▁label	-10.1708
▁minimal	-10.1708
▁minor	-10.1709
▁rinse	-10.1709
▁output	-10.1709
▁literal	-10.1709
▁adhere	-10.1709
▁distract	-10.1709
▁alternative	-10.1709
▁fell	-10.171
▁celebration	-10.171
▁national	-10.1713
▁feet	-10.1718
▁candy	-10.1719
▁clamp	-10.172
▁warn	-10.1722
▁strictly	-10.1723
▁specializ	-10.1731
▁Ch	-10.1735
▁retain	-10.174
▁issued	-10.1757
▁agent	-10.176
▁lock	-10.177
▁indicated	-10.1771
▁craft	-10.1775
oo	-10.1784
▁vessels	-10.1796
▁tied	-10.1806
▁proteins	-10.1828
▁passed	-10.183
▁tear	-10.1835
▁readers	-10.1859
▁preferences	-10.1862
▁rivets	-10.1887
▁demo	-10.1888
▁shoot	-10.1902
▁tones	-10.1914
wear	-10.1925
▁para	-10.1935
▁holidays	-10.1943
▁seam	-10.1946
▁progress	-10.1974
▁elastic	-10.1976
▁wonder	-10.1976
▁leaf	-10.1978
▁Work	-10.1979
▁arrow	-10.1979
▁chronic	-10.1979
▁column	-10.1979
▁honey	-10.1979
▁inflammation	-10.1979
▁leaving	-10.1979
▁palace	-10.1979
▁studied	-10.1979
▁television	-10.1979
▁transaction	-10.1979
▁serving	-10.1979
▁barrel	-10.1979
▁Word	-10.1979
▁asleep	-10.1979
▁pirate	-10.1979
▁align	-10.1979
▁organism	-10.1979
▁Under	-10.1979
▁Cook	-10.198
▁keyboard	-10.198
yoto	-10.198
▁park	-10.198
▁snowman	-10.198
▁chain	-10.1981
▁obvious	-10.1981
▁Over	-10.1983
▁Read	-10.1985
▁claim	-10.1996
▁Put	-10.1998
▁parties	-10.1999
▁lying	-10.2005
▁baked	-10.2006
ets	-10.2028
▁bird	-10.2035
▁month	-10.2035
▁substance	-10.2036
▁parameter	-10.2037
▁repeated	-10.2046
▁older	-10.2049
▁accumulate	-10.2064
▁ever	-10.2089
▁career	-10.2114
ko	-10.2127
▁greatly	-10.2132
▁Na	-10.2143
▁satisfy	-10.218
▁cracks	-10.2187
V	-10.2197
▁levels	-10.2208
▁detect	-10.221
▁tradition	-10.2216
▁neat	-10.2236
▁banks	-10.2238
▁poor	-10.2238
▁potato	-10.2245
▁wearing	-10.2247
▁micro	-10.2256
▁acquainted	-10.2257
▁drift	-10.2257
▁entertainment	-10.2257
▁intimate	-10.2257
▁license	-10.2257
▁pocket	-10.2257
▁uniform	-10.2257
▁vacuum	-10.2257
▁vertical	-10.2257
▁rope	-10.2257
▁Every	-10.2257
▁cease	-10.2257
▁court	-10.2257
▁sector	-10.2257
▁outfit	-10.2257
▁mechanical	-10.2257
▁parcel	-10.2257
▁towel	-10.2257
▁input	-10.2257
▁participate	-10.2258
▁funny	-10.2258
▁property	-10.2259
▁investment	-10.2261
▁belly	-10.2263
▁fashionable	-10.2263
▁emergency	-10.2263
▁agreement	-10.2264
▁beads	-10.2265
▁factor	-10.2268
▁cancel	-10.2268
▁secrets	-10.2268
▁sick	-10.2268
▁jar	-10.2269
▁won	-10.227
▁expression	-10.2291
ches	-10.2314
▁mineral	-10.2319
her	-10.232
▁blade	-10.232
▁napkin	-10.232
▁movie	-10.2321
▁review	-10.2323
▁benefits	-10.2325
ically	-10.2329
▁erase	-10.2337
▁clicking	-10.2342
▁arises	-10.2357
▁stones	-10.2363
▁inserted	-10.238
▁strongly	-10.2386
▁saved	-10.2391
▁speakers	-10.2398
▁total	-10.24
▁personally	-10.2408
▁str	-10.2408
▁term	-10.242
▁opens	-10.2428
▁th	-10.2433
dge	-10.2453
istic	-10.2458
nal	-10.2461
▁mill	-10.2467
▁seat	-10.2467
F	-10.2477
▁cure	-10.2484
▁compar	-10.2498
▁fail	-10.25
▁publish	-10.2501
ama	-10.2505
▁mention	-10.2509
▁magic	-10.251
▁joy	-10.2514
▁Creat	-10.2534
▁kinds	-10.2536
▁prove	-10.2541
▁Taiwan	-10.2542
▁Depend	-10.2542
▁clarify	-10.2542
▁cloud	-10.2542
▁eyelashes	-10.2542
▁glaze	-10.2542
▁homogeneous	-10.2542
▁labor	-10.2542
▁volunteer	-10.2542
▁Select	-10.2542
▁sponge	-10.2542
▁motivation	-10.2542
▁stove	-10.2542
▁vagina	-10.2542
▁hood	-10.2542
▁lady	-10.2542
▁fried	-10.2542
▁average	-10.2542
▁capture	-10.2542
teering	-10.2543
▁assistant	-10.2543
▁citrus	-10.2543
▁tick	-10.2544
▁glance	-10.2544
▁cities	-10.2545
▁functionality	-10.2545
▁sh	-10.2546
▁sight	-10.2552
▁generation	-10.2553
▁More	-10.2555
▁editor	-10.2556
▁hotel	-10.2557
▁tired	-10.2558
▁cast	-10.2561
itis	-10.2564
▁procedures	-10.2569
▁factory	-10.257
▁observ	-10.2574
▁plays	-10.2581
▁deleted	-10.2605
▁wheels	-10.2613
▁explained	-10.2614
▁crack	-10.2615
▁student	-10.2616
▁Di	-10.2621
▁observed	-10.2624
▁additives	-10.2637
▁advanced	-10.2641
▁hormones	-10.2644
▁adapter	-10.2654
▁ga	-10.2666
▁lip	-10.2669
▁demonstrate	-10.2672
▁falls	-10.2674
▁suffering	-10.2681
▁aware	-10.2689
▁fibers	-10.269
▁squeeze	-10.2702
▁determined	-10.2702
▁doesn	-10.2712
▁East	-10.2724
▁mu	-10.2737
chi	-10.2747
▁examples	-10.2759
▁napkins	-10.2769
▁blades	-10.2769
▁birds	-10.2776
G	-10.2778
▁designer	-10.2779
▁join	-10.2779
inal	-10.2803
read	-10.2811
ster	-10.2816
ified	-10.2829
ped	-10.2829
▁numbering	-10.283
▁wrap	-10.2835
▁abroad	-10.2836
▁border	-10.2836
▁command	-10.2836
▁concentration	-10.2836
▁cucumber	-10.2836
▁hormonal	-10.2836
▁malicious	-10.2836
▁myself	-10.2836
▁parrot	-10.2836
▁refresh	-10.2836
▁sleeve	-10.2836
▁utilities	-10.2836
▁Clean	-10.2836
▁sink	-10.2836
▁score	-10.2836
▁cycle	-10.2836
▁bathroom	-10.2837
▁girlfriend	-10.2837
▁imagine	-10.2837
▁staff	-10.2837
▁alone	-10.2838
▁gland	-10.2838
▁slot	-10.2838
▁rail	-10.284
▁fos	-10.2842
▁sitting	-10.2843
▁effectiveness	-10.2845
▁Give	-10.2849
▁incorrectly	-10.2852
▁Once	-10.2855
▁loads	-10.2858
▁wishes	-10.2859
men	-10.2867
▁starts	-10.2874
▁Base	-10.2887
▁computers	-10.2892
▁chemical	-10.2917
▁machines	-10.2931
▁minimize	-10.2945
▁boards	-10.2957
▁Mar	-10.2958
▁disadvantages	-10.2961
▁worked	-10.2964
▁grains	-10.2982
▁sheets	-10.2987
cing	-10.299
pped	-10.2994
▁calories	-10.3002
▁additionally	-10.3003
▁played	-10.3011
▁interests	-10.3016
▁war	-10.3026
▁remained	-10.304
▁fasten	-10.3045
▁watching	-10.3047
▁attend	-10.3077
▁web	-10.3082
The	-10.3083
▁consume	-10.309
rch	-10.3099
▁requests	-10.3099
▁bake	-10.3112
uch	-10.313
▁Cha	-10.3132
lihood	-10.3139
▁Draw	-10.3139
▁Nevertheless	-10.3139
▁expense	-10.3139
▁explore	-10.3139
▁fragrance	-10.3139
▁intensity	-10.3139
▁leather	-10.3139
▁script	-10.3139
▁stylist	-10.3139
▁typical	-10.3139
▁unexpected	-10.3139
▁workshop	-10.3139
▁charm	-10.3139
▁Open	-10.3139
▁Step	-10.3139
▁partition	-10.314
▁relief	-10.314
▁radiator	-10.314
▁talent	-10.314
▁signature	-10.314
▁toilet	-10.3141
▁bold	-10.3141
▁death	-10.3142
▁nearby	-10.3142
▁European	-10.3143
▁manifestation	-10.3143
▁loan	-10.3143
▁noise	-10.3147
▁involve	-10.3151
▁Remove	-10.3151
▁bags	-10.3153
▁exam	-10.3156
▁tablets	-10.3161
▁passes	-10.3178
▁ma	-10.3185
▁twisted	-10.3188
▁boiled	-10.3196
tan	-10.3197
▁folded	-10.3201
▁goals	-10.3212
▁stronger	-10.3221
▁brands	-10.3222
▁glasses	-10.3228
▁egg	-10.3231
▁Pre	-10.3234
▁closer	-10.3238
▁hero	-10.3264
▁relations	-10.3268
▁tourists	-10.3268
▁tested	-10.3272
▁sta	-10.3284
airy	-10.3288
▁clothing	-10.3295
▁corners	-10.3329
▁laws	-10.3338
▁difficulty	-10.3355
▁purchas	-10.3363
▁views	-10.3364
▁calls	-10.3393
▁knit	-10.3397
▁register	-10.3411
▁perceive	-10.3422
ute	-10.3441
odern	-10.3451
▁capacity	-10.3452
▁garbage	-10.3452
▁hurry	-10.3452
▁importance	-10.3452
▁instrument	-10.3452
▁manufacturing	-10.3452
▁peroxide	-10.3452
▁porridge	-10.3452
▁saturated	-10.3452
▁sequence	-10.3452
▁strategy	-10.3452
▁beyond	-10.3452
▁roof	-10.3452
▁smile	-10.3452
▁palm	-10.3452
▁olive	-10.3452
▁diarrhea	-10.3452
▁temporary	-10.3452
▁confidence	-10.3452
▁permission	-10.3452
▁sensitivity	-10.3452
▁shock	-10.3452
▁impressive	-10.3453
▁spring	-10.3455
▁ne	-10.3456
▁instantly	-10.3459
▁somehow	-10.346
▁kit	-10.3464
▁recently	-10.347
ung	-10.3474
▁carbon	-10.3479
▁checked	-10.3479
▁assigned	-10.3484
▁po	-10.3492
▁recognized	-10.3498
▁fields	-10.3503
▁Set	-10.3507
▁functional	-10.3517
▁normally	-10.3535
▁established	-10.3538
▁Can	-10.3557
▁kid	-10.3558
▁fragments	-10.357
▁shapes	-10.3571
▁beef	-10.3574
▁entirely	-10.3575
▁panels	-10.3589
▁followed	-10.3621
▁spic	-10.3631
▁def	-10.3637
▁pathogen	-10.3644
▁naturally	-10.3651
▁regions	-10.3674
known	-10.3713
iness	-10.3721
▁rely	-10.3723
▁competent	-10.3752
▁calculate	-10.3761
▁minus	-10.3763
▁scratch	-10.3763
▁sketch	-10.3763
▁Europe	-10.3771
ologist	-10.3774
▁Festival	-10.3774
▁Terms	-10.3774
▁biogas	-10.3774
▁compound	-10.3774
▁empty	-10.3774
▁glitter	-10.3774
▁hospital	-10.3774
▁humidity	-10.3774
▁internet	-10.3774
▁nervous	-10.3774
▁recipient	-10.3774
▁satellite	-10.3774
▁somewhat	-10.3774
▁suspension	-10.3774
▁ventilation	-10.3774
▁vinegar	-10.3774
▁wizard	-10.3774
▁crust	-10.3774
▁fungus	-10.3774
▁pistol	-10.3774
▁remedies	-10.3774
▁spiral	-10.3774
▁cuticle	-10.3774
▁silk	-10.3774
▁metabolism	-10.3775
▁Find	-10.3775
▁argue	-10.3775
▁cord	-10.3775
▁permanent	-10.3775
▁split	-10.3775
▁climb	-10.3775
▁configuration	-10.3775
▁fireplace	-10.3775
▁irritation	-10.3775
▁resistance	-10.3776
▁earth	-10.3776
▁reference	-10.3776
▁periodically	-10.3776
▁humor	-10.3777
▁abdomen	-10.3778
▁skip	-10.3779
▁tomatoes	-10.3781
▁navigate	-10.3782
▁knot	-10.3782
▁tile	-10.3788
▁houses	-10.3791
▁lessons	-10.3795
port	-10.3796
▁trim	-10.3802
▁combat	-10.3805
▁farm	-10.3805
▁drinks	-10.3806
▁ha	-10.3812
▁coal	-10.3813
▁timely	-10.3815
▁peeling	-10.3826
specially	-10.3856
▁rivet	-10.3872
▁postcards	-10.3878
▁graphic	-10.3884
▁says	-10.3895
ries	-10.3897
▁proportions	-10.3899
▁chances	-10.39
▁lifting	-10.3917
▁snowflakes	-10.3942
imed	-10.3951
▁cosmetics	-10.3957
▁consumers	-10.3981
▁improv	-10.3985
▁blocking	-10.3991
▁seriously	-10.4
▁fi	-10.4005
▁loading	-10.4012
▁reduces	-10.4022
▁topics	-10.4025
▁plane	-10.4037
▁months	-10.404
style	-10.4042
▁Le	-10.406
ush	-10.4071
cha	-10.4091
▁though	-10.4093
▁education	-10.4097
we	-10.41
▁norm	-10.4104
ni	-10.4105
▁complain	-10.4106
▁aggressive	-10.4108
▁batteries	-10.4108
▁brilliant	-10.4108
▁childhood	-10.4108
▁compact	-10.4108
▁compos	-10.4108
▁conclude	-10.4108
▁destination	-10.4108
▁disturb	-10.4108
▁enterprise	-10.4108
▁entrance	-10.4108
▁humidifier	-10.4108
▁rhinestones	-10.4108
▁shampoo	-10.4108
▁weapon	-10.4108
▁pigment	-10.4108
▁piston	-10.4108
▁saving	-10.4108
▁steel	-10.4108
▁nerve	-10.4108
▁wedding	-10.4108
▁index	-10.4108
▁river	-10.4108
▁freedom	-10.4108
▁stamp	-10.4108
▁cafe	-10.4108
▁siding	-10.4108
▁shall	-10.4108
▁Where	-10.4108
▁industrial	-10.4108
▁boot	-10.4108
▁Lo	-10.4108
▁applica	-10.4109
▁distribution	-10.411
▁healing	-10.411
▁father	-10.411
▁immunity	-10.4111
▁examine	-10.4111
▁accuracy	-10.4113
▁fasteners	-10.4113
▁dragon	-10.4114
▁rotor	-10.4126
▁cheaper	-10.4128
▁statement	-10.4135
▁poorly	-10.4135
▁workout	-10.4141
▁cutter	-10.4142
▁surrounding	-10.4145
▁belong	-10.4151
af	-10.4157
▁restrictions	-10.4165
▁updated	-10.4188
▁pen	-10.4195
▁submit	-10.4214
▁smoothly	-10.4223
▁attempt	-10.4229
▁trend	-10.423
▁restaurant	-10.423
▁missing	-10.4248
▁wires	-10.4262
▁lovers	-10.4263
▁War	-10.4274
yo	-10.4286
etic	-10.429
▁forces	-10.4303
▁walking	-10.4321
▁cone	-10.4325
▁covers	-10.4327
▁emails	-10.4331
▁rem	-10.4334
▁Sh	-10.4362
ong	-10.4366
▁theory	-10.4378
▁finding	-10.4388
▁sending	-10.4399
back	-10.4406
▁melt	-10.4413
▁engage	-10.4419
▁dissolve	-10.4422
▁exclude	-10.4422
▁tun	-10.4426
▁fats	-10.4441
▁disable	-10.4441
nic	-10.4444
▁transport	-10.4448
▁profit	-10.4449
▁trans	-10.4451
▁Immediately	-10.4453
▁abandon	-10.4453
▁algorithm	-10.4453
▁cocoa	-10.4453
▁complement	-10.4453
▁convenience	-10.4453
▁evaluate	-10.4453
▁patience	-10.4453
▁stencil	-10.4453
▁stunning	-10.4453
▁succeed	-10.4453
▁surprising	-10.4453
▁victim	-10.4453
▁yarn	-10.4453
▁garage	-10.4453
▁opal	-10.4453
▁viral	-10.4453
▁brine	-10.4453
▁plus	-10.4453
▁console	-10.4453
▁copie	-10.4453
▁department	-10.4453
▁vest	-10.4453
▁Further	-10.4454
▁native	-10.4454
▁wake	-10.4454
▁shine	-10.4454
▁shopping	-10.4454
▁hall	-10.4455
▁immers	-10.4455
▁clock	-10.4455
▁Home	-10.4456
▁realistic	-10.4456
▁motivate	-10.4457
▁pack	-10.4457
▁thus	-10.4458
▁pronounced	-10.446
▁branches	-10.446
▁passage	-10.446
▁Show	-10.4461
▁tender	-10.4463
▁cry	-10.4466
▁stimulate	-10.4467
▁Start	-10.447
▁accessible	-10.4474
▁injury	-10.4484
▁alphabet	-10.4488
▁smoked	-10.4517
▁ago	-10.4518
▁beach	-10.4523
▁phrases	-10.4552
▁differences	-10.4571
▁staining	-10.4579
▁instruction	-10.4592
▁consumer	-10.4608
▁vehicles	-10.4616
▁scale	-10.4621
▁dye	-10.4634
▁va	-10.4636
▁combin	-10.4646
▁meals	-10.4656
▁plac	-10.4674
▁restaurants	-10.468
ov	-10.4685
▁entered	-10.4688
down	-10.4695
▁introduc	-10.47
▁chemicals	-10.4713
▁feeding	-10.4723
load	-10.4739
nants	-10.474
▁drives	-10.4748
▁destroy	-10.4768
▁profession	-10.4776
ology	-10.4782
▁unlike	-10.4794
how	-10.4798
▁books	-10.4802
▁immun	-10.4808
▁Service	-10.481
▁abilities	-10.481
▁bucket	-10.481
▁cinema	-10.481
▁conflict	-10.481
▁density	-10.481
▁disassemble	-10.481
▁enamel	-10.481
▁fault	-10.481
▁joke	-10.481
▁landscape	-10.481
▁malfunction	-10.481
▁prompt	-10.481
▁punish	-10.481
▁teeth	-10.481
▁uterus	-10.481
▁aesthetic	-10.481
▁depth	-10.481
▁novice	-10.481
▁drain	-10.481
▁sensor	-10.481
▁ease	-10.481
▁gluing	-10.481
▁font	-10.481
▁cappuccino	-10.481
▁acute	-10.481
▁downloading	-10.481
▁curls	-10.481
▁rays	-10.481
▁strain	-10.4811
▁Preparation	-10.4811
▁Like	-10.4811
▁irrigation	-10.4811
▁wipe	-10.4811
▁vary	-10.4812
worm	-10.4812
▁cabinet	-10.4812
▁coins	-10.4814
▁insulation	-10.4814
▁muc	-10.4815
▁glossy	-10.4815
▁exit	-10.4815
▁partially	-10.4819
ock	-10.482
▁pose	-10.4823
▁mistakes	-10.4827
▁divided	-10.4829
▁operations	-10.4834
▁drinking	-10.4837
▁tend	-10.4838
▁partners	-10.4838
▁counter	-10.4842
▁rapidly	-10.4848
osis	-10.485
▁modules	-10.4851
▁antibiotics	-10.4863
▁caress	-10.4863
▁accelerate	-10.4864
▁pancakes	-10.4871
▁smallest	-10.4877
▁heads	-10.488
▁falling	-10.4882
▁seams	-10.4885
▁dec	-10.4894
▁widely	-10.4902
▁noticed	-10.4928
▁disorders	-10.4954
▁kidney	-10.4956
▁ingredient	-10.496
▁apple	-10.4966
▁subscriber	-10.4967
▁win	-10.4968
of	-10.4987
▁reactions	-10.5018
iz	-10.5023
▁apples	-10.503
▁moved	-10.5032
▁clip	-10.5044
▁island	-10.5053
▁protected	-10.5054
▁pi	-10.5064
▁structures	-10.5067
▁replac	-10.5091
▁testing	-10.5106
▁exception	-10.5107
▁supplement	-10.5139
▁distinguish	-10.514
▁refu	-10.5141
onic	-10.5156
▁actual	-10.516
▁America	-10.5165
▁distribute	-10.5169
▁twi	-10.5171
losing	-10.5174
nternational	-10.5178
▁Method	-10.518
▁capabilities	-10.518
▁ceramic	-10.518
▁heartbeat	-10.518
▁imagination	-10.518
▁interlocutor	-10.518
▁magnet	-10.518
▁mayonnaise	-10.518
▁mercury	-10.518
▁qualities	-10.518
▁syndrome	-10.518
▁thrush	-10.518
▁domestic	-10.518
▁withdraw	-10.518
▁Additional	-10.518
▁pulse	-10.518
▁Cause	-10.518
▁firmly	-10.518
▁Software	-10.518
▁frost	-10.518
▁bolt	-10.518
pplies	-10.518
▁stability	-10.518
▁straw	-10.5181
▁circulation	-10.5181
▁breakdown	-10.5181
▁Motor	-10.5182
▁lake	-10.5182
▁boring	-10.5183
▁correspondence	-10.5183
▁cash	-10.5185
▁grate	-10.5188
scent	-10.5189
▁cats	-10.519
▁blender	-10.5192
▁delightful	-10.5193
▁warmth	-10.5194
▁primary	-10.5197
▁backup	-10.5198
▁disclose	-10.5203
▁grinder	-10.5203
▁proposed	-10.5204
▁worsen	-10.5205
▁attacks	-10.5206
▁resistant	-10.5214
▁snacks	-10.5215
lor	-10.5218
tric	-10.5222
▁registered	-10.5229
▁feels	-10.5236
▁outline	-10.5244
ttle	-10.5249
▁ta	-10.5252
▁strands	-10.5261
lim	-10.5266
▁Ri	-10.5266
▁lighting	-10.5269
▁modeling	-10.527
meter	-10.5271
▁refer	-10.5275
▁athletes	-10.5279
▁texts	-10.528
tory	-10.5285
▁engines	-10.5301
▁challenges	-10.5322
▁ear	-10.5327
ki	-10.5329
ji	-10.533
▁Prepare	-10.5335
▁brings	-10.5338
▁consist	-10.5345
▁preference	-10.5345
called	-10.5356
▁solved	-10.5358
▁rods	-10.536
▁spending	-10.5369
▁finishing	-10.5378
▁downloaded	-10.5385
▁refers	-10.5401
▁hanging	-10.5418
▁trends	-10.5426
▁Dis	-10.5426
▁environmental	-10.5457
▁meal	-10.5462
color	-10.547
▁fabrics	-10.5474
▁era	-10.548
▁accord	-10.549
based	-10.5509
▁fee	-10.5512
▁strange	-10.552
▁recent	-10.5542
▁designers	-10.5547
▁slight	-10.5547
ough	-10.5559
▁Greek	-10.5565
▁Personal	-10.5565
▁Simple	-10.5565
▁acrylic	-10.5565
▁corporate	-10.5565
▁countertop	-10.5565
▁experiencing	-10.5565
▁fluffy	-10.5565
▁inexpensive	-10.5565
▁innovation	-10.5565
▁lunch	-10.5565
▁mandatory	-10.5565
▁membrane	-10.5565
▁oxygen	-10.5565
▁perspective	-10.5565
▁registry	-10.5565
▁scenario	-10.5565
▁sequins	-10.5565
▁temple	-10.5565
▁terrible	-10.5565
▁truth	-10.5565
▁yeast	-10.5565
▁dynamic	-10.5565
▁stitch	-10.5565
▁overcome	-10.5565
▁hunt	-10.5565
▁moderate	-10.5565
▁worn	-10.5565
▁animation	-10.5565
▁phase	-10.5565
▁commercial	-10.5565
ban	-10.5565
▁dispos	-10.5565
▁activate	-10.5565
▁solar	-10.5565
▁credit	-10.5565
eutic	-10.5566
▁rack	-10.5567
▁wand	-10.5569
▁camera	-10.5571
▁State	-10.5574
▁saw	-10.5575
▁removable	-10.5575
▁exposed	-10.5576
▁publication	-10.5577
▁Sub	-10.5579
▁exclusively	-10.558
▁welded	-10.5582
▁freely	-10.5582
▁confused	-10.5583
▁Up	-10.5583
▁complexity	-10.5587
▁reasonable	-10.5595
▁neatly	-10.5597
▁ribbons	-10.5601
ON	-10.5601
▁translate	-10.5604
▁availability	-10.5605
▁lamps	-10.5605
▁states	-10.5608
▁led	-10.5608
▁understandable	-10.561
▁passion	-10.561
▁Whi	-10.5619
▁pie	-10.5623
▁slider	-10.5628
▁representatives	-10.564
▁opened	-10.5657
▁grown	-10.5659
▁harder	-10.5662
▁bills	-10.5667
▁organizations	-10.5672
▁shadows	-10.5676
▁inter	-10.5683
▁salads	-10.569
▁failures	-10.569
▁filters	-10.569
▁tests	-10.5694
▁operate	-10.5703
▁cooler	-10.5706
▁institutions	-10.5712
▁poured	-10.5728
ami	-10.5729
han	-10.5742
▁cosmetic	-10.5742
▁handles	-10.5744
▁slice	-10.5744
▁pulled	-10.5746
▁improved	-10.5749
▁cra	-10.576
▁cooled	-10.577
▁calorie	-10.5772
▁roller	-10.578
▁forever	-10.5787
▁evenly	-10.5814
▁sticking	-10.5843
▁mount	-10.5847
▁knowing	-10.585
▁buildings	-10.5897
▁songs	-10.5902
level	-10.5907
▁manifest	-10.5919
light	-10.5925
▁assign	-10.5926
▁kill	-10.5929
▁standing	-10.5934
▁exact	-10.5942
▁Special	-10.595
▁chose	-10.595
▁interact	-10.5951
▁insulat	-10.5962
▁Website	-10.5965
▁abstract	-10.5965
▁accent	-10.5965
▁carbohydrates	-10.5965
▁coincide	-10.5965
▁compile	-10.5965
▁cultural	-10.5965
▁eliminating	-10.5965
▁occasion	-10.5965
▁occupy	-10.5965
▁ointment	-10.5965
▁permissible	-10.5965
▁phenomenon	-10.5965
▁registration	-10.5965
▁science	-10.5965
▁shirt	-10.5965
▁stupid	-10.5965
▁unforgettable	-10.5965
▁Earth	-10.5965
▁disappoint	-10.5965
▁honest	-10.5965
▁leadership	-10.5965
▁predict	-10.5965
▁unleash	-10.5965
▁collar	-10.5965
▁garden	-10.5965
▁taskbar	-10.5965
▁guess	-10.5965
▁honor	-10.5965
▁overlap	-10.5965
▁cartoon	-10.5965
▁leak	-10.5965
▁ornament	-10.5965
▁intense	-10.5965
▁berries	-10.5965
▁Treat	-10.5965
▁discharge	-10.5965
▁Below	-10.5965
▁masterpiece	-10.5966
▁programming	-10.5966
▁colon	-10.5966
▁feedback	-10.5966
▁stack	-10.5966
▁income	-10.5966
▁somewhere	-10.5966
▁anywhere	-10.5967
▁framework	-10.5968
▁critical	-10.5973
▁electricity	-10.5974
▁mesh	-10.5974
▁weeks	-10.5975
▁interaction	-10.5978
▁irr	-10.5979
▁adequate	-10.598
▁grater	-10.5987
▁weaken	-10.5992
▁manifested	-10.6006
▁premises	-10.6006
▁thematic	-10.6014
▁alcoholic	-10.6015
▁pearl	-10.602
▁soak	-10.6022
ash	-10.6023
▁prices	-10.6025
▁stuffing	-10.6032
aki	-10.6033
▁deeper	-10.6034
▁soften	-10.6034
▁implemented	-10.6036
▁configured	-10.6037
▁mounting	-10.6042
▁conducted	-10.6049
▁flaws	-10.6062
▁balanced	-10.6064
▁adjusted	-10.608
▁viewing	-10.6086
▁smells	-10.6089
▁poet	-10.609
▁employees	-10.609
▁Men	-10.6091
▁blocked	-10.6109
▁folding	-10.6119
▁desires	-10.613
▁Sea	-10.6135
being	-10.6141
▁headache	-10.6158
▁ticket	-10.6161
▁didn	-10.6171
▁headaches	-10.6184
▁tickets	-10.6184
uction	-10.6185
▁risks	-10.619
day	-10.6192
▁printing	-10.6223
▁ti	-10.6239
kin	-10.626
▁beard	-10.6264
▁organic	-10.6276
▁minerals	-10.6288
new	-10.629
▁fed	-10.6309
▁o	-10.6317
▁joints	-10.6318
▁cakes	-10.632
mark	-10.6323
▁separated	-10.6326
▁Man	-10.6334
▁portions	-10.6338
▁guys	-10.6339
▁studying	-10.635
▁strict	-10.6359
▁comb	-10.6361
▁primar	-10.6362
▁App	-10.638
▁coop	-10.638
▁digest	-10.6381
▁transmit	-10.6381
▁accompanied	-10.6381
▁accustomed	-10.6381
▁armpits	-10.6381
▁attentive	-10.6381
▁chamber	-10.6381
▁deviation	-10.6381
▁diversify	-10.6381
▁facade	-10.6381
▁fatigue	-10.6381
▁random	-10.6381
▁replenish	-10.6381
▁rhythm	-10.6381
▁rigid	-10.6381
▁spectacular	-10.6381
▁swallow	-10.6381
▁toothpick	-10.6381
▁bodies	-10.6381
▁eyelid	-10.6381
▁grab	-10.6381
▁horizontal	-10.6381
▁valve	-10.6381
▁crystal	-10.6381
▁three	-10.6381
▁tumor	-10.6381
▁polymer	-10.6381
▁postpone	-10.6381
▁barrier	-10.6381
▁implie	-10.6382
▁footnote	-10.6382
▁cutlets	-10.6382
▁reliability	-10.6382
▁laser	-10.6382
▁Ayurveda	-10.6382
▁transmitted	-10.6382
▁rewriting	-10.6382
▁wrinkles	-10.6383
▁reduction	-10.6383
▁Shi	-10.6384
▁crop	-10.6384
wo	-10.6384
▁US	-10.6384
▁satin	-10.6384
▁besides	-10.6386
▁strive	-10.6386
▁fake	-10.6387
▁Color	-10.6388
▁Install	-10.6388
▁photography	-10.6389
▁coverage	-10.6391
▁login	-10.6392
▁construct	-10.6399
▁calculation	-10.64
▁town	-10.64
▁favorable	-10.64
▁popularity	-10.6404
▁architecture	-10.6406
▁stripes	-10.6409
▁tint	-10.641
▁exciting	-10.6413
▁upset	-10.6416
▁virtual	-10.6419
▁sad	-10.642
▁consideration	-10.6424
▁mounted	-10.6424
▁aluminum	-10.6425
▁melted	-10.6431
▁distributed	-10.6438
▁ob	-10.6442
ose	-10.6463
▁solv	-10.6472
ware	-10.6481
▁expressed	-10.6488
▁sincere	-10.6493
duct	-10.6499
▁concerns	-10.6503
▁colorful	-10.6524
▁chip	-10.653
▁tricks	-10.6532
▁...	-10.6538
▁bangs	-10.6541
▁breaks	-10.6565
▁hardly	-10.6567
▁defects	-10.6581
▁snowflake	-10.6594
▁fiber	-10.6595
▁comment	-10.6595
▁guest	-10.6596
get	-10.6621
▁sewing	-10.6632
ise	-10.6632
▁rollers	-10.6635
lash	-10.6661
more	-10.6677
ese	-10.6697
▁spin	-10.6718
▁rais	-10.6732
▁versions	-10.6743
tech	-10.6756
▁bra	-10.676
flow	-10.6761
▁gather	-10.6778
▁allocate	-10.6786
▁boys	-10.6788
▁medicines	-10.6793
▁ride	-10.6798
▁promot	-10.6803
▁gold	-10.6808
▁header	-10.6808
▁advertise	-10.6813
▁knitt	-10.6815
▁beneficial	-10.6816
▁calcium	-10.6816
▁challenging	-10.6816
▁evidence	-10.6816
▁exquisite	-10.6816
▁influenza	-10.6816
▁inspiration	-10.6816
▁iodine	-10.6816
▁magnificent	-10.6816
▁memorable	-10.6816
▁moisturize	-10.6816
▁neighbor	-10.6816
▁population	-10.6816
▁temporarily	-10.6816
▁territory	-10.6816
▁tincture	-10.6816
▁worried	-10.6816
▁fetus	-10.6816
▁blind	-10.6816
▁subtle	-10.6816
▁Click	-10.6816
▁shelf	-10.6816
▁convey	-10.6816
▁ultrasound	-10.6816
▁Turn	-10.6816
▁chasing	-10.6816
▁devote	-10.6816
▁rough	-10.6816
▁shield	-10.6816
▁withstand	-10.6816
▁semi	-10.6817
▁plum	-10.6817
▁smokehouse	-10.6817
▁sharing	-10.6817
▁rose	-10.6817
▁mountain	-10.6817
▁happiness	-10.6817
▁loud	-10.6817
▁caught	-10.6818
▁cyclamen	-10.6819
▁wave	-10.6819
▁completion	-10.6819
▁unknown	-10.6821
▁overload	-10.6821
▁residues	-10.6822
▁seasonings	-10.6823
▁Get	-10.6827
▁Tip	-10.6827
▁trade	-10.6829
▁urgently	-10.6829
▁handling	-10.683
▁forums	-10.683
▁encoding	-10.6845
▁developers	-10.6845
▁tract	-10.6847
▁Create	-10.6855
▁brushes	-10.6861
▁participants	-10.6862
▁failed	-10.6879
▁incorrect	-10.688
▁detected	-10.6881
▁nutrients	-10.6882
▁discussion	-10.6896
▁accumulated	-10.69
▁heard	-10.6901
▁profiles	-10.6902
▁absorbed	-10.691
▁surprised	-10.6915
▁ship	-10.6918
▁tap	-10.6929
place	-10.693
▁ju	-10.693
▁pate	-10.6931
▁fu	-10.6933
▁delivered	-10.6936
▁advised	-10.6938
▁raised	-10.6964
▁deposits	-10.6989
▁integra	-10.6992
▁residents	-10.7004
▁highlighted	-10.7004
▁crumb	-10.7012
erg	-10.7021
▁Part	-10.7024
▁grain	-10.7051
▁speaker	-10.7072
view	-10.7076
▁receiver	-10.7091
▁organ	-10.7092
▁creamy	-10.7094
ata	-10.7135
▁player	-10.7137
xperienced	-10.7149
▁fixing	-10.7156
▁collecting	-10.716
ryn	-10.7173
▁outer	-10.7188
▁stuff	-10.7194
▁bars	-10.7198
▁maintaining	-10.7208
▁mon	-10.7214
▁Mus	-10.7225
▁assume	-10.724
▁settle	-10.724
▁rub	-10.724
▁generate	-10.7241
▁German	-10.7251
▁peace	-10.7251
▁sweets	-10.7257
▁tre	-10.7259
▁extensi	-10.7264
▁keys	-10.7267
▁Consult	-10.7271
▁Patients	-10.7271
▁TABF	-10.7271
▁admire	-10.7271
▁anxiety	-10.7271
▁certificate	-10.7271
▁cinnamon	-10.7271
▁clitoris	-10.7271
▁cypress	-10.7271
▁detergent	-10.7271
▁geometric	-10.7271
▁illustrator	-10.7271
▁inappropriate	-10.7271
▁kept	-10.7271
▁memories	-10.7271
▁monophonic	-10.7271
▁nickname	-10.7271
▁pneumonia	-10.7271
▁polish	-10.7271
▁psychological	-10.7271
▁salmon	-10.7271
▁satisfaction	-10.7271
▁scroll	-10.7271
▁simplicity	-10.7271
▁tariff	-10.7271
▁trigger	-10.7271
▁wrote	-10.7271
▁deteriorat	-10.7271
▁pursu	-10.7271
▁welcome	-10.7271
▁casual	-10.7271
▁snap	-10.7271
▁Option	-10.7271
▁outdoor	-10.7271
▁optimiz	-10.7271
▁Italian	-10.7271
▁overheat	-10.7271
▁rock	-10.7271
▁estate	-10.7271
▁transmission	-10.7271
▁forgotten	-10.7271
▁orchid	-10.7271
▁outcome	-10.7271
▁Look	-10.7271
▁sophisticated	-10.7271
▁bookmark	-10.7272
▁merge	-10.7272
▁distinctive	-10.7272
▁braid	-10.7272
▁directions	-10.7273
▁drip	-10.7273
▁dries	-10.7274
▁elasticity	-10.7276
▁rating	-10.7278
▁definition	-10.7278
▁farmers	-10.7278
▁implementation	-10.728
▁rectangle	-10.7281
▁golden	-10.7282
▁adjustment	-10.7282
▁taxi	-10.7285
orean	-10.7285
▁promise	-10.7286
▁ham	-10.7286
rising	-10.7287
▁improvement	-10.7289
▁uniqueness	-10.7291
▁draft	-10.7291
▁slip	-10.7291
▁Play	-10.7292
▁struggle	-10.7294
ature	-10.7296
orient	-10.7296
▁deprived	-10.7308
▁equally	-10.7313
▁perceived	-10.7315
▁runn	-10.7318
▁musical	-10.7325
▁creators	-10.734
▁estimate	-10.7346
▁bubbles	-10.7371
▁discussed	-10.7385
▁Ask	-10.7388
▁salting	-10.7388
▁introduced	-10.7397
▁satisfying	-10.7399
▁Jo	-10.7399
▁correction	-10.74
▁spoiled	-10.7404
▁deeply	-10.7409
▁congratulations	-10.7425
▁citizens	-10.7444
▁poster	-10.7463
▁youth	-10.7483
▁landing	-10.7496
▁crumbs	-10.75
▁reserve	-10.7523
▁vehicle	-10.7524
▁defect	-10.7525
▁parent	-10.7529
ina	-10.7542
▁rolls	-10.7549
▁stretched	-10.7552
▁demanding	-10.7559
▁radi	-10.7559
▁teacher	-10.756
▁dyes	-10.7563
▁nor	-10.7568
iff	-10.7578
▁mis	-10.7579
▁Mak	-10.759
static	-10.7595
▁booking	-10.7596
▁languages	-10.7603
▁returned	-10.7621
▁continu	-10.7622
▁pouring	-10.7638
▁Sta	-10.764
▁Min	-10.7642
▁tighten	-10.7651
▁agents	-10.7662
vid	-10.7663
▁peel	-10.7671
house	-10.7689
click	-10.7689
free	-10.7689
▁supported	-10.769
mail	-10.7694
ball	-10.7695
▁knock	-10.7706
▁traces	-10.7706
▁covering	-10.7707
▁propose	-10.7717
▁relate	-10.7721
▁therap	-10.773
▁fate	-10.7738
colored	-10.774
▁laugh	-10.7745
▁cla	-10.7746
▁Conclusion	-10.7747
▁Moscow	-10.7747
▁adverse	-10.7747
▁antiseptic	-10.7747
▁blowjob	-10.7747
▁caution	-10.7747
▁clutch	-10.7747
▁crisis	-10.7747
▁encounter	-10.7747
▁facilities	-10.7747
▁flexible	-10.7747
▁harvest	-10.7747
▁miracle	-10.7747
▁moisturizing	-10.7747
▁newsletter	-10.7747
▁ourselves	-10.7747
▁perimeter	-10.7747
▁portrait	-10.7747
▁respirator	-10.7747
▁souvenir	-10.7747
▁velvet	-10.7747
▁wavy	-10.7747
▁Content	-10.7747
▁copper	-10.7747
▁cozy	-10.7747
▁purity	-10.7747
▁Finally	-10.7747
▁touchpad	-10.7747
▁screenshot	-10.7747
▁verification	-10.7747
▁France	-10.7747
▁adopt	-10.7747
▁lush	-10.7747
▁odor	-10.7747
▁beverage	-10.7747
▁debt	-10.7747
▁occurred	-10.7747
▁gynecologist	-10.7748
▁disaster	-10.7748
▁sculpture	-10.7748
▁sunlight	-10.7748
▁sushi	-10.7748
▁indoor	-10.7748
▁Mix	-10.7748
▁Vari	-10.7749
▁flush	-10.7749
▁affordable	-10.7749
▁cooperation	-10.7749
sembl	-10.7749
▁spell	-10.775
▁penis	-10.775
▁cache	-10.775
▁Long	-10.775
▁sandwiches	-10.7751
▁Master	-10.7751
▁collagen	-10.7751
▁Application	-10.7751
▁abuse	-10.7752
▁readiness	-10.7752
fled	-10.7752
▁rotate	-10.7752
▁vain	-10.7755
▁rotation	-10.7756
▁moistened	-10.776
ably	-10.7761
▁folders	-10.7761
▁bigge	-10.7761
▁Dry	-10.7762
▁dead	-10.7763
▁clay	-10.7766
▁tale	-10.7773
▁Apply	-10.7773
▁prohibited	-10.7774
▁appointed	-10.7778
▁woolen	-10.7778
tries	-10.7788
za	-10.7794
▁prevention	-10.7799
▁logical	-10.78
mend	-10.7801
▁lace	-10.7802
▁stretching	-10.7804
▁spine	-10.7806
▁enhanced	-10.7807
▁chestnuts	-10.7808
▁fastened	-10.7813
▁preserved	-10.7818
▁revealed	-10.7834
▁undergo	-10.7853
▁photographs	-10.7853
bru	-10.7855
▁blanks	-10.7864
▁platforms	-10.7872
▁milling	-10.7877
▁paintings	-10.7883
▁manipulations	-10.7886
▁hurts	-10.7894
late	-10.7895
▁ahead	-10.7898
▁cooker	-10.7921
▁pressed	-10.7939
▁suited	-10.794
play	-10.7949
▁Proper	-10.795
▁seemed	-10.7957
▁adj	-10.7976
▁symptom	-10.8027
shaped	-10.8042
▁kidneys	-10.8044
▁lighter	-10.8054
▁attempts	-10.8067
▁graphics	-10.8078
▁functioning	-10.8101
▁plastering	-10.8125
now	-10.8139
case	-10.8158
▁pulling	-10.8176
▁compress	-10.8201
▁depriv	-10.8206
ux	-10.8219
▁thorough	-10.8224
▁luck	-10.8228
orea	-10.8231
▁opt	-10.824
aught	-10.8241
▁prior	-10.8244
▁stir	-10.8245
▁mutual	-10.8247
inflammatory	-10.8247
▁Africa	-10.8247
▁Different	-10.8247
▁Soviet	-10.8247
▁affairs	-10.8247
▁aggregate	-10.8247
▁ammonia	-10.8247
▁aneurysm	-10.8247
▁ballerina	-10.8247
▁cavity	-10.8247
▁charging	-10.8247
▁colleague	-10.8247
▁compensate	-10.8247
▁convulsion	-10.8247
▁crawl	-10.8247
▁crochet	-10.8247
▁crossbow	-10.8247
▁gorgeous	-10.8247
▁identity	-10.8247
▁inconvenience	-10.8247
▁injuries	-10.8247
▁journey	-10.8247
▁lantern	-10.8247
▁maintenance	-10.8247
▁microflora	-10.8247
▁obliged	-10.8247
▁passenger	-10.8247
▁possibilities	-10.8247
▁potassium	-10.8247
▁probability	-10.8247
▁provision	-10.8247
▁reboot	-10.8247
▁reinstall	-10.8247
▁scope	-10.8247
▁subtleties	-10.8247
▁supplied	-10.8247
▁survive	-10.8247
▁tobacco	-10.8247
▁trunk	-10.8247
▁village	-10.8247
▁width	-10.8247
▁Learn	-10.8247
▁Small	-10.8247
▁Type	-10.8247
▁battle	-10.8247
▁insurance	-10.8247
▁occurrence	-10.8247
▁reverse	-10.8247
▁overseas	-10.8247
▁unsuccessful	-10.8247
▁crown	-10.8247
▁wax	-10.8247
▁relieve	-10.8247
▁horn	-10.8247
▁spinning	-10.8247
▁wealth	-10.8247
▁communities	-10.8247
▁pillow	-10.8247
▁blouse	-10.8247
▁contemporar	-10.8247
▁distort	-10.8247
▁interview	-10.8247
▁buckwheat	-10.8247
▁lean	-10.8247
▁spoke	-10.8247
▁perception	-10.8247
▁salon	-10.8247
▁controller	-10.8248
▁impose	-10.8248
▁rust	-10.8248
▁sustainable	-10.8248
▁compliance	-10.8249
▁existence	-10.8249
▁volumetric	-10.8249
▁shake	-10.825
▁flight	-10.825
▁stimulation	-10.825
▁decorating	-10.825
▁stirling	-10.8251
▁bandage	-10.8251
▁vice	-10.8252
▁profitable	-10.8252
▁weakness	-10.8254
▁normalize	-10.8254
▁Last	-10.8254
▁slim	-10.8254
▁gum	-10.8255
▁chase	-10.8255
▁aspects	-10.8256
▁dating	-10.8257
▁emb	-10.8257
taneous	-10.826
▁spouses	-10.8262
▁cow	-10.8263
▁excited	-10.8267
▁Fac	-10.8268
▁ban	-10.8268
▁infected	-10.8269
▁cleansing	-10.8271
▁Hand	-10.8272
▁crumbly	-10.8273
▁lowest	-10.8274
atch	-10.8275
▁cheating	-10.8277
▁documentation	-10.8277
▁shy	-10.8279
▁considerable	-10.8283
▁mistaken	-10.8285
unny	-10.8286
▁poly	-10.8286
▁activated	-10.8287
▁core	-10.8288
▁tightened	-10.8291
▁folds	-10.8293
▁dresses	-10.8294
▁magical	-10.8303
▁insufficient	-10.8306
matic	-10.8306
▁patch	-10.8307
▁dimensions	-10.8313
▁calmly	-10.8317
▁efficiently	-10.8317
▁acids	-10.832
OR	-10.8323
▁calculated	-10.8323
▁eating	-10.8335
▁darker	-10.834
▁expected	-10.8348
▁operational	-10.835
▁matches	-10.8363
hole	-10.8369
▁rounded	-10.8375
▁leaders	-10.8376
▁magazines	-10.8394
▁actors	-10.8399
▁attraction	-10.841
▁listening	-10.8457
▁closely	-10.8465
▁interrupt	-10.8486
▁reserves	-10.8488
tude	-10.849
▁inspect	-10.8494
▁oily	-10.8494
▁happening	-10.8503
▁accumulat	-10.8509
▁dryer	-10.8544
▁relation	-10.8551
▁disadvantage	-10.8551
▁tourist	-10.8552
▁expert	-10.8552
▁formula	-10.8569
▁scales	-10.8574
▁resident	-10.8598
ject	-10.8601
olk	-10.8621
▁pressing	-10.8629
▁duplicate	-10.8634
tract	-10.8694
▁pear	-10.87
familiar	-10.8715
body	-10.8715
class	-10.8716
▁invent	-10.8719
▁incredibl	-10.875
hea	-10.8756
either	-10.8757
▁broke	-10.8758
▁tomato	-10.8762
▁calling	-10.8765
▁Cap	-10.8771
▁faith	-10.8772
▁compete	-10.8772
▁Photo	-10.8773
▁Barbe	-10.8773
▁administration	-10.8773
▁approve	-10.8773
▁burden	-10.8773
▁competitor	-10.8773
▁cramps	-10.8773
▁criteria	-10.8773
▁dilute	-10.8773
▁dispute	-10.8773
▁drunk	-10.8773
▁dumbbells	-10.8773
▁emphasis	-10.8773
▁excitement	-10.8773
▁facial	-10.8773
▁flesh	-10.8773
▁friction	-10.8773
▁indifferent	-10.8773
▁innovative	-10.8773
▁interval	-10.8773
▁invisible	-10.8773
▁knead	-10.8773
▁laboratory	-10.8773
▁militar	-10.8773
▁nightmare	-10.8773
▁nuggets	-10.8773
▁ocean	-10.8773
▁parallel	-10.8773
▁persistent	-10.8773
▁pizza	-10.8773
▁poison	-10.8773
▁scientific	-10.8773
▁shaft	-10.8773
▁silhouette	-10.8773
▁simplify	-10.8773
▁triangle	-10.8773
▁truffle	-10.8773
▁venue	-10.8773
▁Features	-10.8773
▁Maybe	-10.8773
▁amateur	-10.8773
▁macro	-10.8773
▁statistic	-10.8773
▁packaging	-10.8773
▁smear	-10.8773
▁weaving	-10.8773
▁rescue	-10.8773
▁burst	-10.8773
erior	-10.8773
▁remedy	-10.8773
▁entry	-10.8773
▁Post	-10.8773
▁injection	-10.8773
▁reliably	-10.8773
▁measurements	-10.8774
▁swing	-10.8774
▁radical	-10.8774
▁Combin	-10.8774
▁insult	-10.8774
▁lever	-10.8774
▁ugly	-10.8774
▁transferred	-10.8774
▁hinge	-10.8774
▁loose	-10.8774
▁robot	-10.8774
▁defeat	-10.8774
finite	-10.8775
▁initiative	-10.8775
▁passport	-10.8775
▁candies	-10.8776
▁banners	-10.8777
▁glad	-10.8777
▁reader	-10.8778
▁bay	-10.8778
▁camp	-10.8779
▁acceptable	-10.8781
▁collaboration	-10.8782
▁arrangement	-10.8782
▁itching	-10.8783
▁banal	-10.8785
▁sake	-10.8786
▁Pay	-10.8786
▁suspended	-10.8788
▁confirmation	-10.8788
▁attachment	-10.879
▁educational	-10.879
▁intensive	-10.8791
▁dietary	-10.8791
▁comparison	-10.8792
▁rent	-10.8798
▁crushed	-10.8799
▁assembled	-10.8799
▁mustard	-10.8804
▁Art	-10.8805
▁originality	-10.8808
stick	-10.8812
▁lover	-10.8815
▁dive	-10.8817
▁sum	-10.8819
▁consumed	-10.8827
▁invite	-10.8829
▁published	-10.885
opy	-10.8865
▁knees	-10.8878
▁wider	-10.8879
▁par	-10.8893
▁missed	-10.8894
lon	-10.89
▁reflected	-10.8904
▁candles	-10.8928
▁linen	-10.8931
▁accordingly	-10.8936
▁proposals	-10.8941
▁salty	-10.8945
▁heater	-10.8945
▁speaking	-10.8953
▁radio	-10.901
▁eliminated	-10.9011
▁Fo	-10.9041
▁fighting	-10.9046
▁encourage	-10.9051
▁marker	-10.9053
▁Gra	-10.9062
▁continued	-10.9065
moto	-10.9081
▁copying	-10.9089
▁gro	-10.9105
▁disorder	-10.9106
▁consequence	-10.9107
▁dressing	-10.9115
▁nut	-10.9126
ashi	-10.913
ograph	-10.9136
oma	-10.9193
IS	-10.9193
▁favor	-10.9204
qualified	-10.9214
▁sticker	-10.9215
▁pla	-10.9256
virus	-10.927
point	-10.9271
power	-10.9271
This	-10.9271
▁Comm	-10.9275
▁hy	-10.9276
tail	-10.928
▁roast	-10.9289
path	-10.9298
▁divide	-10.9299
▁quiet	-10.9305
room	-10.9306
▁route	-10.9307
▁tire	-10.931
▁recover	-10.931
▁digit	-10.9311
▁tax	-10.9314
▁branch	-10.9318
▁resist	-10.9327
▁assess	-10.9327
▁accident	-10.9328
ogram	-10.9328
▁Beautiful	-10.9329
▁Recipe	-10.9329
▁World	-10.9329
▁acetone	-10.9329
▁acquisition	-10.9329
▁breathing	-10.9329
▁condense	-10.9329
▁contaminated	-10.9329
▁determining	-10.9329
▁divorce	-10.9329
▁embedded	-10.9329
▁fabulous	-10.9329
▁forbidden	-10.9329
▁intervention	-10.9329
▁kindergarten	-10.9329
▁luxurious	-10.9329
▁marriage	-10.9329
▁microorganism	-10.9329
▁modify	-10.9329
▁scarves	-10.9329
▁scream	-10.9329
▁spatula	-10.9329
▁stead	-10.9329
▁suede	-10.9329
▁syrup	-10.9329
▁University	-10.9329
▁Women	-10.9329
▁database	-10.9329
▁suspect	-10.9329
▁Everything	-10.9329
▁Second	-10.9329
▁bleeding	-10.9329
▁peak	-10.9329
▁Steam	-10.9329
▁Bank	-10.9329
▁quot	-10.9329
▁wild	-10.9329
▁harmony	-10.9329
▁legend	-10.9329
▁dump	-10.9329
▁horse	-10.9329
▁oval	-10.9329
▁resemble	-10.9329
▁tongue	-10.9329
▁sky	-10.9329
▁copyright	-10.9329
▁categories	-10.933
▁penetration	-10.933
▁engineering	-10.933
▁mint	-10.933
▁flora	-10.933
▁Market	-10.9331
▁sacr	-10.9331
▁stew	-10.9332
▁awareness	-10.9333
▁Experienced	-10.9333
▁niche	-10.9333
▁alive	-10.9334
▁Plan	-10.9336
▁mid	-10.9336
iliar	-10.9337
▁consent	-10.9337
▁expressive	-10.9339
▁inspection	-10.9341
▁Naturally	-10.9341
▁tiny	-10.9342
intestin	-10.9343
▁tractor	-10.9348
▁vomiting	-10.9349
▁harmoniously	-10.9349
▁seeds	-10.9352
▁fixation	-10.9355
▁massive	-10.9355
▁straighten	-10.9356
▁mat	-10.936
▁anorexia	-10.9361
▁bl	-10.9362
▁circumstances	-10.9362
▁IN	-10.9367
▁competently	-10.9369
▁spiritual	-10.9376
▁repeatedly	-10.9377
▁planet	-10.9384
▁dirty	-10.9385
▁thicken	-10.9388
▁pasta	-10.9388
▁cubes	-10.9401
▁displac	-10.9402
▁guaranteed	-10.941
nowing	-10.9415
▁trained	-10.9421
▁coast	-10.9426
▁referr	-10.9429
▁deposit	-10.9429
fully	-10.9431
▁sooner	-10.9443
▁shower	-10.9448
▁cereals	-10.9453
▁softer	-10.9453
▁shooting	-10.949
▁nu	-10.9491
▁bother	-10.9492
▁violate	-10.9499
▁proportion	-10.95
▁burned	-10.9513
position	-10.9526
▁manufactured	-10.9536
▁loaded	-10.9553
tie	-10.9568
AL	-10.9581
▁sparkl	-10.9587
▁Award	-10.9615
▁teachers	-10.9615
▁useless	-10.962
▁challenge	-10.9694
▁fragment	-10.9695
▁institution	-10.9695
▁citizen	-10.9696
last	-10.9701
▁bang	-10.9708
▁Real	-10.9721
ception	-10.9725
going	-10.9738
▁grind	-10.9803
oshi	-10.982
▁optional	-10.9826
▁filler	-10.9837
paste	-10.9859
water	-10.9867
▁brief	-10.9894
▁exclusive	-10.9896
njoy	-10.9916
▁Chocolate	-10.9917
▁Classic	-10.9917
▁Currently	-10.9917
▁Palace	-10.9917
▁Point	-10.9917
▁administrator	-10.9917
▁agriculture	-10.9917
▁bloom	-10.9917
▁breathe	-10.9917
▁bruise	-10.9917
▁calendar	-10.9917
▁cartridge	-10.9917
▁centimeter	-10.9917
▁clogged	-10.9917
▁concert	-10.9917
▁deformation	-10.9917
▁discretion	-10.9917
▁disinfect	-10.9917
▁ecosystem	-10.9917
▁gasoline	-10.9917
▁gauze	-10.9917
▁gloves	-10.9917
▁greeting	-10.9917
▁hemorrhoid	-10.9917
▁hydrogen	-10.9917
▁inclusion	-10.9917
▁indispensable	-10.9917
▁integrity	-10.9917
▁jeans	-10.9917
▁keywords	-10.9917
▁lump	-10.9917
▁lungs	-10.9917
▁magnesium	-10.9917
▁measuring	-10.9917
▁purified	-10.9917
▁quantities	-10.9917
▁revenge	-10.9917
▁romance	-10.9917
▁shelves	-10.9917
▁simultaneously	-10.9917
▁stuck	-10.9917
▁subconscious	-10.9917
▁superfluous	-10.9917
▁tastier	-10.9917
▁uncomfortable	-10.9917
▁Develop	-10.9917
▁Place	-10.9917
▁alarm	-10.9917
▁bypass	-10.9917
▁incident	-10.9917
▁lazy	-10.9917
▁motif	-10.9917
▁participation	-10.9917
▁regime	-10.9917
▁gender	-10.9917
▁giant	-10.9917
▁shiny	-10.9917
▁tropical	-10.9917
azan	-10.9917
▁Film	-10.9917
▁bonus	-10.9917
▁cargo	-10.9917
▁eventually	-10.9917
▁saucepan	-10.9917
▁Water	-10.9917
▁illness	-10.9917
▁prosper	-10.9917
▁allergen	-10.9917
▁shortcomings	-10.9917
▁thermometer	-10.9917
▁shutdown	-10.9917
▁dialogue	-10.9917
▁lining	-10.9917
▁bunch	-10.9918
▁wrapped	-10.9918
▁instance	-10.9918
▁accidentally	-10.9918
▁busy	-10.9918
▁executive	-10.9918
▁brake	-10.9919
▁assistance	-10.9919
▁religio	-10.9919
▁aircraft	-10.9919
▁adventure	-10.9919
▁trash	-10.9919
▁complaints	-10.9919
▁initialization	-10.992
▁chef	-10.992
▁variations	-10.992
▁assessment	-10.9921
▁mature	-10.9921
▁passionate	-10.9921
▁advertisement	-10.9922
▁White	-10.9922
▁gem	-10.9922
▁tang	-10.9922
▁Light	-10.9923
▁Paris	-10.9923
▁conference	-10.9923
▁shot	-10.9923
▁posture	-10.9926
▁satisfied	-10.9926
▁circula	-10.9932
▁gate	-10.9934
▁Unit	-10.9934
▁dependent	-10.9937
▁sketches	-10.9938
▁briefly	-10.994
▁offended	-10.9941
acent	-10.9942
▁concerned	-10.9949
▁syn	-10.995
▁dryness	-10.9951
▁scientists	-10.9952
▁scare	-10.9952
▁reli	-10.9953
▁kisses	-10.9956
▁designate	-10.9963
▁invented	-10.9963
▁variant	-10.9965
▁viewers	-10.9968
▁mini	-10.9976
▁bind	-10.9984
▁reflection	-10.999
▁sewn	-10.999
▁grinding	-10.9995
▁arranged	-11
▁mission	-11
atsu	-11.0009
▁delayed	-11.0011
▁modem	-11.0014
▁younger	-11.0024
aster	-11.005
▁organizer	-11.0059
▁marked	-11.0062
▁hints	-11.0091
▁sharply	-11.0107
▁die	-11.0113
▁Movi	-11.0121
itted	-11.0222
▁none	-11.023
▁namely	-11.0235
It	-11.0244
▁handy	-11.0253
▁celebrate	-11.026
round	-11.0265
▁peculiar	-11.0271
unt	-11.0286
▁hormone	-11.032
▁trick	-11.0321
▁sport	-11.0333
▁visitor	-11.0372
bility	-11.0381
▁sweat	-11.0421
▁sock	-11.0448
▁annoy	-11.0465
mission	-11.0481
▁Chi	-11.0483
resident	-11.0484
box	-11.0495
▁appoint	-11.0498
▁depict	-11.0501
▁neutral	-11.0501
fill	-11.0509
▁assemble	-11.0512
▁confuse	-11.0512
▁harmonious	-11.0519
▁ratio	-11.0524
▁shave	-11.0526
▁depress	-11.053
scribe	-11.0535
▁apart	-11.054
sibility	-11.0541
▁architect	-11.0541
▁Brazil	-11.0541
▁surg	-11.0541
Advertising	-11.0542
▁Christian	-11.0542
▁Think	-11.0542
▁apparatus	-11.0542
▁chamomile	-11.0542
▁chopsticks	-11.0542
▁collapse	-11.0542
▁competitive	-11.0542
▁comprehensive	-11.0542
▁consciousness	-11.0542
▁contaminants	-11.0542
▁decompose	-11.0542
▁diabetes	-11.0542
▁discount	-11.0542
▁diversity	-11.0542
▁durability	-11.0542
▁firewood	-11.0542
▁garland	-11.0542
▁hygiene	-11.0542
▁illegal	-11.0542
▁imitation	-11.0542
▁inclined	-11.0542
▁incorporat	-11.0542
▁luxury	-11.0542
▁neglect	-11.0542
▁occupation	-11.0542
▁opponent	-11.0542
▁physiological	-11.0542
▁plenty	-11.0542
▁police	-11.0542
▁portfolio	-11.0542
▁poultry	-11.0542
▁receipt	-11.0542
▁recognition	-11.0542
▁reflex	-11.0542
▁regulate	-11.0542
▁reputation	-11.0542
▁scoliosis	-11.0542
▁seafood	-11.0542
▁telephone	-11.0542
▁valid	-11.0542
▁worldwide	-11.0542
▁club	-11.0542
▁declare	-11.0542
▁enemy	-11.0542
▁pallet	-11.0542
▁redirect	-11.0542
▁uneven	-11.0542
▁Girl	-11.0542
▁afternoon	-11.0542
▁crib	-11.0542
▁exertion	-11.0542
▁vacation	-11.0542
▁curtain	-11.0542
▁enrich	-11.0542
▁married	-11.0542
▁Food	-11.0542
▁mild	-11.0542
▁exotic	-11.0542
▁jet	-11.0542
▁defend	-11.0542
▁Plus	-11.0542
▁Follow	-11.0542
▁unreal	-11.0542
▁winning	-11.0542
▁spare	-11.0542
▁timing	-11.0542
▁novel	-11.0542
▁preferred	-11.0542
▁assembling	-11.0542
▁limitations	-11.0543
▁alkali	-11.0543
▁analogue	-11.0543
▁unauthorized	-11.0543
▁intake	-11.0543
▁cheerful	-11.0543
▁nursery	-11.0543
▁shaving	-11.0543
▁hyper	-11.0543
▁percentage	-11.0543
▁Watch	-11.0543
▁faithful	-11.0543
▁fungi	-11.0544
▁beacon	-11.0544
▁hypo	-11.0545
▁Game	-11.0545
▁glow	-11.0546
▁stopped	-11.0546
▁North	-11.0548
▁race	-11.0548
▁damp	-11.0548
▁compression	-11.0548
▁desk	-11.0549
▁motion	-11.055
▁pants	-11.0551
▁Snow	-11.0552
▁Centr	-11.0552
▁distan	-11.0554
▁stopping	-11.0554
▁boun	-11.0555
▁System	-11.0556
▁upload	-11.056
▁fitting	-11.0562
▁defined	-11.0567
▁relaxation	-11.0568
▁riveter	-11.0568
▁threaten	-11.0568
▁overdo	-11.0569
▁minced	-11.0571
▁logo	-11.0572
▁genital	-11.0575
▁ja	-11.0577
gue	-11.0578
▁imper	-11.0579
▁swelling	-11.058
▁beans	-11.0581
▁panic	-11.0585
▁chin	-11.0586
▁Careful	-11.0588
ility	-11.0589
▁Cold	-11.0591
▁Card	-11.0591
▁appliances	-11.0594
▁compressed	-11.0594
▁welding	-11.0595
▁allocated	-11.0596
▁outlet	-11.0597
▁List	-11.0598
▁excluded	-11.0599
▁destroyed	-11.0616
▁God	-11.0621
▁binding	-11.0624
▁barn	-11.0628
key	-11.0641
▁secondly	-11.0652
▁shifted	-11.0661
▁mine	-11.0663
▁bare	-11.0672
▁guided	-11.0672
▁pleased	-11.0763
▁holder	-11.0763
▁familiarize	-11.0767
▁summ	-11.0767
▁relaxed	-11.0773
▁lac	-11.0781
▁ruler	-11.0792
▁recall	-11.0818
lov	-11.0825
▁Red	-11.0935
▁vitamin	-11.0979
axi	-11.098
▁additive	-11.0987
▁congratulation	-11.0987
▁vessel	-11.0987
▁submitt	-11.0997
▁hour	-11.1002
long	-11.1013
correct	-11.1017
IE	-11.1026
taining	-11.1082
▁Tak	-11.1089
▁drag	-11.1097
right	-11.1105
▁surround	-11.1133
▁complet	-11.1134
ith	-11.1137
▁fund	-11.1146
making	-11.1149
▁Chang	-11.1149
resistant	-11.115
connect	-11.115
carbon	-11.115
related	-11.1151
standard	-11.1151
▁exhibit	-11.1175
▁lubricate	-11.1178
▁mince	-11.1178
▁blend	-11.1188
▁rectang	-11.1194
▁continuous	-11.1197
▁collaborat	-11.1198
▁analog	-11.1208
incomprehensible	-11.1209
ontraindications	-11.1209
▁Colosseum	-11.1209
▁Reiki	-11.1209
▁antibacterial	-11.1209
▁assortment	-11.1209
▁balcony	-11.1209
▁basket	-11.1209
▁bracket	-11.1209
▁cheek	-11.1209
▁christmas	-11.1209
▁crankcase	-11.1209
▁cunning	-11.1209
▁curiosity	-11.1209
▁decades	-11.1209
▁diagram	-11.1209
▁economy	-11.1209
▁elevate	-11.1209
▁espresso	-11.1209
▁evolve	-11.1209
▁feathers	-11.1209
▁flask	-11.1209
▁flood	-11.1209
▁fragile	-11.1209
▁furnace	-11.1209
▁grandmother	-11.1209
▁hunger	-11.1209
▁identical	-11.1209
▁impregnated	-11.1209
▁injured	-11.1209
▁marinade	-11.1209
▁mistress	-11.1209
▁newborn	-11.1209
▁obligation	-11.1209
▁preliminar	-11.1209
▁quarrel	-11.1209
▁regulator	-11.1209
▁repetition	-11.1209
▁simulator	-11.1209
▁supermarket	-11.1209
▁teenager	-11.1209
▁toothbrush	-11.1209
▁username	-11.1209
▁wheelchair	-11.1209
▁widespread	-11.1209
▁Bruce	-11.1209
▁Latin	-11.1209
▁antigel	-11.1209
▁courage	-11.1209
▁creature	-11.1209
▁daughter	-11.1209
▁duck	-11.1209
▁genetic	-11.1209
▁guard	-11.1209
▁Program	-11.1209
▁album	-11.1209
▁arrive	-11.1209
▁groove	-11.1209
▁respectively	-11.1209
▁slab	-11.1209
▁trifle	-11.1209
▁Blue	-11.1209
▁duration	-11.1209
▁Social	-11.1209
▁worst	-11.1209
▁margin	-11.1209
▁suck	-11.1209
▁loyal	-11.1209
▁hammer	-11.1209
▁pray	-11.1209
▁problematic	-11.1209
▁soldiers	-11.1209
▁meatballs	-11.1209
▁pace	-11.1209
▁peas	-11.1209
▁refund	-11.1209
▁sphere	-11.1209
▁gearbox	-11.1209
▁dozen	-11.1209
▁Old	-11.1209
▁cement	-11.1209
▁scanning	-11.1209
▁thumb	-11.1209
▁tilt	-11.1209
▁matern	-11.1209
▁diagnostic	-11.1209
▁everywhere	-11.121
▁commitment	-11.121
ctress	-11.121
▁privacy	-11.121
▁noticeably	-11.121
▁needlework	-11.121
▁toxic	-11.121
▁slippers	-11.121
▁bitterness	-11.1211
▁dropped	-11.1211
▁shallow	-11.1211
▁decline	-11.1211
Health	-11.1211
▁rob	-11.1211
▁rational	-11.1212
▁Roman	-11.1212
▁priority	-11.1213
▁nation	-11.1214
▁Mark	-11.1214
▁unfortunately	-11.1214
▁mast	-11.1214
▁grill	-11.1214
▁Installation	-11.1216
▁mucus	-11.1216
▁windowsill	-11.1216
▁pharmacy	-11.1217
▁Arm	-11.1217
▁fade	-11.1218
▁Run	-11.1219
▁inspire	-11.122
EN	-11.122
▁Beach	-11.122
▁exhibitor	-11.1221
▁north	-11.1222
▁depression	-11.1222
▁assure	-11.1222
▁Indian	-11.1223
▁Control	-11.1223
▁historical	-11.1224
reach	-11.1226
▁dill	-11.1227
▁redness	-11.1232
▁beaches	-11.1232
▁scratches	-11.1233
▁shaver	-11.1234
await	-11.1235
▁trial	-11.1237
▁skid	-11.1237
▁incredible	-11.1238
▁inspired	-11.1239
▁portal	-11.1247
berry	-11.1256
▁handmade	-11.1263
▁knocked	-11.1267
▁tray	-11.1268
▁gathered	-11.1273
▁killed	-11.1279
▁addresses	-11.1289
▁disabled	-11.1291
▁Inside	-11.1297
▁See	-11.1298
▁essentially	-11.1302
▁joined	-11.1305
grade	-11.1308
▁tightening	-11.132
▁launched	-11.1328
▁Ju	-11.1336
▁approaches	-11.1338
▁ext	-11.1341
▁physically	-11.1349
▁charged	-11.1355
▁sus	-11.136
▁arc	-11.1363
▁generat	-11.1381
▁confirmed	-11.1383
▁exceptional	-11.1387
▁saucer	-11.1389
▁brighter	-11.1392
▁matt	-11.1447
▁pit	-11.1463
▁sha	-11.153
▁Mi	-11.1557
umb	-11.1641
brid	-11.1641
▁Anti	-11.1686
head	-11.1688
▁prohibit	-11.1689
▁proposal	-11.1698
▁employee	-11.17
▁beginner	-11.1702
▁carrot	-11.1702
fulness	-11.1711
void	-11.1712
▁candle	-11.1721
▁cal	-11.1746
▁calculat	-11.1812
▁accelerat	-11.1814
▁Col	-11.1828
▁thermo	-11.1858
wheel	-11.1864
scale	-11.1864
▁intend	-11.1885
▁stimul	-11.1888
▁ski	-11.1889
ceptible	-11.189
oid	-11.19
▁sudden	-11.19
▁immediate	-11.19
weet	-11.1902
▁Fig	-11.1917
▁hum	-11.1918
▁interpret	-11.1918
▁freeze	-11.192
roblems	-11.1921
▁rug	-11.1923
▁authentic	-11.1923
▁compatib	-11.1923
▁regret	-11.1923
ochemical	-11.1923
rtifacts	-11.1923
▁Australia	-11.1923
▁Decorat	-11.1923
▁Initially	-11.1923
▁Interesting	-11.1923
▁Material	-11.1923
▁NOT	-11.1923
▁Original	-11.1923
▁Prague	-11.1923
▁Regardless	-11.1923
▁abundant	-11.1923
▁activation	-11.1923
▁asterisk	-11.1923
▁biodiversity	-11.1923
▁breakfast	-11.1923
▁bristle	-11.1923
▁cervical	-11.1923
▁chandelier	-11.1923
▁coconut	-11.1923
▁companion	-11.1923
▁defrost	-11.1923
▁departure	-11.1923
▁dismantl	-11.1923
▁division	-11.1923
▁elderly	-11.1923
▁entrust	-11.1923
▁expansion	-11.1923
▁families	-11.1923
▁flame	-11.1923
▁genuine	-11.1923
▁literature	-11.1923
▁mysterious	-11.1923
▁pelvis	-11.1923
▁pilaf	-11.1923
▁qualitative	-11.1923
▁sacrifice	-11.1923
▁suppress	-11.1923
▁technological	-11.1923
▁trouser	-11.1923
▁undesirable	-11.1923
▁ventilate	-11.1923
▁vodka	-11.1923
▁Increase	-11.1923
▁bumper	-11.1923
▁dedicate	-11.1923
▁origami	-11.1923
▁purple	-11.1923
▁queue	-11.1923
▁Until	-11.1923
▁butterfly	-11.1923
▁cherish	-11.1923
▁handicraft	-11.1923
▁disperse	-11.1923
▁silence	-11.1923
▁strap	-11.1923
▁bleach	-11.1923
▁gym	-11.1923
Network	-11.1923
▁golf	-11.1923
▁trimming	-11.1923
▁odd	-11.1923
▁facing	-11.1923
▁Vietnamese	-11.1923
▁genre	-11.1923
▁tolerate	-11.1923
▁miniature	-11.1923
▁domain	-11.1923
▁sodium	-11.1923
▁irregularities	-11.1923
▁freezing	-11.1923
▁interference	-11.1923
▁directives	-11.1923
▁philosoph	-11.1923
▁Search	-11.1924
▁Project	-11.1924
▁trading	-11.1924
▁almond	-11.1924
▁infectious	-11.1924
▁ginger	-11.1924
▁pedal	-11.1924
▁multimeter	-11.1924
▁Island	-11.1924
▁Product	-11.1925
▁National	-11.1925
▁alter	-11.1925
▁batch	-11.1925
▁buds	-11.1925
▁extent	-11.1926
▁Data	-11.1926
▁cultivation	-11.1926
▁subway	-11.1926
▁tenderness	-11.1927
▁therapist	-11.1928
▁digestive	-11.1928
▁pool	-11.1929
▁prescribe	-11.1929
▁socket	-11.193
▁intention	-11.193
▁radiation	-11.193
▁assist	-11.1931
▁traction	-11.1932
▁meaningful	-11.1932
▁tower	-11.1932
▁chill	-11.1932
▁transportation	-11.1933
▁File	-11.1933
bra	-11.1933
▁tough	-11.1933
▁crispy	-11.1934
▁pale	-11.1934
▁eve	-11.1934
▁bitter	-11.1935
▁Along	-11.1939
▁spam	-11.1939
▁amino	-11.1941
▁bann	-11.1943
▁Device	-11.1943
▁imm	-11.1943
▁scattered	-11.1946
▁continuously	-11.1948
▁dad	-11.1951
▁lucky	-11.1951
▁symbolic	-11.1956
▁canned	-11.1959
▁endure	-11.196
low	-11.196
▁died	-11.1962
▁photographer	-11.1966
▁shore	-11.197
▁depicted	-11.1971
▁Lee	-11.1974
▁controlled	-11.1975
▁pastel	-11.1976
▁roasted	-11.1977
▁nest	-11.198
▁gone	-11.1992
▁floating	-11.1995
itting	-11.2001
▁invited	-11.2004
▁supplemented	-11.2005
▁printer	-11.2005
▁stranger	-11.2009
▁losses	-11.201
▁shut	-11.2012
▁annoying	-11.2013
▁charger	-11.2037
In	-11.2042
▁sticky	-11.2055
▁Lemon	-11.206
▁qua	-11.2062
▁sweater	-11.2063
▁fulfilled	-11.2065
marinate	-11.2106
foresee	-11.2157
ragm	-11.2158
▁ep	-11.2185
▁Fat	-11.219
▁emergenc	-11.2256
▁classical	-11.2288
worthy	-11.2352
ND	-11.2401
▁gener	-11.2411
▁concern	-11.2427
hot	-11.2438
▁hint	-11.2467
▁magazine	-11.2468
▁manipulation	-11.2468
▁shadow	-11.2469
▁phrase	-11.247
▁cookie	-11.2478
▁believ	-11.2489
▁rang	-11.2516
▁actor	-11.2522
▁invit	-11.2551
aku	-11.2557
marine	-11.2576
▁distribut	-11.2606
artial	-11.262
calorie	-11.2633
▁delet	-11.2636
type	-11.2636
▁float	-11.2641
▁complicate	-11.2662
▁define	-11.2666
▁impress	-11.2668
▁urgent	-11.267
▁subscribe	-11.2674
▁India	-11.2677
▁poll	-11.2682
▁afford	-11.2689
cision	-11.269
▁THE	-11.2692
▁swim	-11.2692
Nippon	-11.2692
▁Arthur	-11.2692
▁Incident	-11.2692
▁Mexic	-11.2692
▁School	-11.2692
▁academic	-11.2692
▁accompany	-11.2692
▁anniversary	-11.2692
▁appetite	-11.2692
▁automated	-11.2692
▁autumn	-11.2692
▁blossom	-11.2692
▁bouquet	-11.2692
▁cassette	-11.2692
▁corporation	-11.2692
▁corrugat	-11.2692
▁custard	-11.2692
▁decisive	-11.2692
▁dermat	-11.2692
▁deserve	-11.2692
▁destruction	-11.2692
▁elimination	-11.2692
▁exposure	-11.2692
▁extraordinar	-11.2692
▁flakes	-11.2692
▁gravity	-11.2692
▁intoxication	-11.2692
▁jeweler	-11.2692
▁lymph	-11.2692
▁maximiz	-11.2692
▁mortar	-11.2692
▁museum	-11.2692
▁nonsense	-11.2692
▁oyster	-11.2692
▁parsley	-11.2692
▁pineapple	-11.2692
▁rewritten	-11.2692
▁roulette	-11.2692
▁sawdust	-11.2692
▁scrub	-11.2692
▁slope	-11.2692
▁strategies	-11.2692
▁structural	-11.2692
▁substrate	-11.2692
▁suspicion	-11.2692
▁sympathy	-11.2692
▁syringe	-11.2692
▁tackle	-11.2692
▁treasure	-11.2692
▁tutorial	-11.2692
▁utiliz	-11.2692
▁vaccination	-11.2692
▁whipped	-11.2692
▁yogurt	-11.2692
▁Alternative	-11.2692
▁Collect	-11.2692
▁Separate	-11.2692
▁broad	-11.2692
▁centuries	-11.2692
▁coordinat	-11.2692
▁dignity	-11.2692
▁examination	-11.2692
▁portray	-11.2692
▁rinsing	-11.2692
▁unfold	-11.2692
▁Wood	-11.2692
▁compartment	-11.2692
▁gelatin	-11.2692
▁motorcycle	-11.2692
▁nasal	-11.2692
▁recycling	-11.2692
▁revive	-11.2692
▁fungal	-11.2692
▁restoration	-11.2692
▁surgeon	-11.2692
▁Link	-11.2692
▁Western	-11.2692
▁cradle	-11.2692
▁balloon	-11.2692
▁gear	-11.2692
▁pause	-11.2692
▁plumbing	-11.2692
▁tabletop	-11.2692
▁alert	-11.2692
▁steal	-11.2692
▁predator	-11.2692
▁Besides	-11.2692
▁relay	-11.2692
▁bait	-11.2692
▁elongat	-11.2692
▁grass	-11.2692
▁newcomer	-11.2693
▁carved	-11.2693
▁stem	-11.2693
▁sorry	-11.2693
▁soldering	-11.2693
▁surgery	-11.2693
▁Rule	-11.2693
▁multicolored	-11.2693
▁autoload	-11.2693
▁cluster	-11.2693
▁Detail	-11.2693
▁stirring	-11.2694
▁optical	-11.2694
defense	-11.2694
▁textbook	-11.2694
▁moral	-11.2694
▁Fancy	-11.2694
▁pitch	-11.2695
▁craftsmen	-11.2695
▁wrapping	-11.2695
▁flashlight	-11.2696
▁calf	-11.2696
▁laughter	-11.2696
▁fiction	-11.2697
erogen	-11.2697
▁undoubtedly	-11.2697
▁Right	-11.2697
▁proud	-11.2697
▁resin	-11.2698
▁probe	-11.2698
▁Lay	-11.2699
▁borrower	-11.2699
▁markup	-11.27
▁Bright	-11.27
▁psychologist	-11.27
▁Tell	-11.2701
▁wings	-11.2705
▁ni	-11.2705
▁warranty	-11.2705
▁jam	-11.2705
▁coach	-11.2707
▁feta	-11.2707
▁sweetness	-11.2707
▁bull	-11.2708
▁Fish	-11.271
▁objective	-11.271
▁cling	-11.271
▁Finished	-11.2711
▁vase	-11.2712
▁documentary	-11.2713
▁completeness	-11.2717
▁representation	-11.2718
▁occupied	-11.2718
▁freshness	-11.2718
▁researchers	-11.2719
▁Who	-11.2719
▁concentrated	-11.2721
political	-11.2722
▁quietly	-11.2725
▁Germany	-11.2726
▁tailor	-11.2729
▁bacterial	-11.273
▁fals	-11.2731
▁myth	-11.2732
▁offline	-11.2735
▁Allow	-11.2743
▁psycho	-11.2745
▁settled	-11.2745
▁assumed	-11.2746
ustion	-11.2757
▁Fur	-11.2761
▁dissolved	-11.2763
▁insist	-11.2765
▁anyway	-11.2765
▁engineers	-11.2771
▁versa	-11.2784
▁gases	-11.2794
▁sat	-11.2799
▁spasm	-11.2809
▁projection	-11.2813
▁sender	-11.2813
▁Love	-11.2828
▁har	-11.2844
▁envelope	-11.2884
▁dig	-11.2961
▁Yu	-11.2968
ancy	-11.3029
▁consolidate	-11.3034
▁Ang	-11.3051
▁congratulate	-11.3067
▁emerg	-11.3127
oku	-11.3135
▁Eas	-11.3137
▁Mom	-11.3155
ories	-11.3163
▁tin	-11.3186
wall	-11.3228
▁Han	-11.3259
▁Move	-11.326
▁produc	-11.3291
▁athlete	-11.3303
▁minute	-11.3305
▁bill	-11.3319
▁gav	-11.3347
TE	-11.3366
rais	-11.3367
▁manag	-11.3383
aries	-11.344
arian	-11.3464
▁Care	-11.3465
controlled	-11.3466
clear	-11.3468
life	-11.3468
How	-11.3472
ED	-11.3474
▁crush	-11.3484
▁concentrate	-11.3495
▁categor	-11.3505
uite	-11.3512
▁residu	-11.3514
▁abdom	-11.3515
▁cabin	-11.352
▁consistent	-11.3521
▁employ	-11.3522
▁distinct	-11.3523
▁compli	-11.3524
omplete	-11.3524
▁sculpt	-11.3524
▁Basic	-11.3525
▁Vietnam	-11.3525
▁Regular	-11.3526
▁Similar	-11.3526
▁dispatch	-11.3526
▁fortune	-11.3526
▁improper	-11.3526
▁infrastructure	-11.3526
▁prominent	-11.3526
▁scrap	-11.3526
▁supposed	-11.3526
ING	-11.3526
gricultural	-11.3526
rguments	-11.3526
▁Probably	-11.3526
▁Recently	-11.3526
▁arrival	-11.3526
▁association	-11.3526
▁awaken	-11.3526
▁awkward	-11.3526
▁boundaries	-11.3526
▁bundle	-11.3526
▁chimney	-11.3526
▁chloride	-11.3526
▁communicating	-11.3526
▁conceived	-11.3526
▁condensate	-11.3526
▁crowd	-11.3526
▁degrease	-11.3526
▁elbow	-11.3526
▁enzyme	-11.3526
▁equivalent	-11.3526
▁essay	-11.3526
▁evaluation	-11.3526
▁fantastic	-11.3526
▁hiking	-11.3526
▁independence	-11.3526
▁influx	-11.3526
▁insignificant	-11.3526
▁knives	-11.3526
▁marigold	-11.3526
▁obstacle	-11.3526
▁pathologies	-11.3526
▁policies	-11.3526
▁polyethylene	-11.3526
▁premature	-11.3526
▁quantity	-11.3526
▁recruit	-11.3526
▁reminisc	-11.3526
▁resolution	-11.3526
▁resolve	-11.3526
▁scotch	-11.3526
▁screwdriver	-11.3526
▁siphon	-11.3526
▁sliding	-11.3526
▁truck	-11.3526
▁tweezers	-11.3526
▁universities	-11.3526
▁Group	-11.3526
▁bacon	-11.3526
▁catalog	-11.3526
▁crazy	-11.3526
▁embody	-11.3526
▁fishermen	-11.3526
▁frighten	-11.3526
▁styling	-11.3526
▁deceive	-11.3526
▁finance	-11.3526
▁mashed	-11.3526
▁stool	-11.3526
▁bulb	-11.3526
▁pride	-11.3526
▁trout	-11.3526
guise	-11.3526
▁dumplings	-11.3526
▁feast	-11.3526
▁Metal	-11.3526
▁urban	-11.3526
▁evil	-11.3526
▁pulp	-11.3526
▁unstable	-11.3526
▁gastro	-11.3526
▁intricate	-11.3526
▁spleen	-11.3526
▁yield	-11.3526
▁indicating	-11.3526
▁monoton	-11.3526
▁derive	-11.3526
▁church	-11.3526
▁dialog	-11.3526
▁amaze	-11.3526
▁paragraph	-11.3526
▁textiles	-11.3526
▁hepat	-11.3526
▁toxins	-11.3526
▁Drive	-11.3526
▁Buy	-11.3526
▁expectations	-11.3526
▁permitted	-11.3526
▁Write	-11.3526
▁Order	-11.3526
▁striptease	-11.3526
▁judge	-11.3526
▁admission	-11.3526
▁inhalation	-11.3526
▁vulnerable	-11.3527
▁plaque	-11.3527
▁terminal	-11.3527
▁praise	-11.3527
▁Brazilian	-11.3527
▁recycle	-11.3527
▁deficiency	-11.3527
▁nitr	-11.3528
▁demonstration	-11.3528
▁rim	-11.3528
▁preservation	-11.3529
▁modula	-11.3529
▁admin	-11.353
consuming	-11.353
▁closing	-11.353
▁interpretation	-11.3531
▁Hold	-11.3532
▁stall	-11.3532
▁grip	-11.3534
▁attractiveness	-11.3535
▁Salt	-11.3535
▁dub	-11.3535
▁storm	-11.3535
▁billet	-11.3537
▁RE	-11.3537
▁cheapest	-11.3537
▁Suga	-11.3538
▁Microsoft	-11.3539
▁Press	-11.3539
▁solvent	-11.354
firm	-11.3541
▁triple	-11.3542
▁mug	-11.3542
▁openwork	-11.3542
▁producers	-11.3543
▁Insert	-11.3546
vast	-11.3546
▁ultimately	-11.3547
▁invention	-11.3548
▁theft	-11.3548
▁consistently	-11.3549
▁bio	-11.355
▁softness	-11.3556
▁reinforced	-11.3556
▁manure	-11.3557
▁heroes	-11.3558
▁preferable	-11.3564
▁lubricated	-11.3565
▁consultation	-11.3569
▁anise	-11.358
▁showcas	-11.358
itant	-11.3588
▁Multi	-11.36
▁Change	-11.3606
ummary	-11.3633
▁boiler	-11.3645
renal	-11.371
some	-11.3716
▁execute	-11.373
llow	-11.381
▁diagnose	-11.3841
iddle	-11.3848
▁Dai	-11.3913
Fi	-11.3972
liable	-11.4006
hand	-11.4059
ographic	-11.4072
▁violat	-11.4135
▁blank	-11.4207
▁acquir	-11.4211
▁flaw	-11.4211
▁pat	-11.4213
tribute	-11.423
make	-11.4249
lways	-11.4288
▁Pain	-11.4304
▁weld	-11.4322
▁Stand	-11.4327
▁separat	-11.4365
▁achiev	-11.4366
▁stor	-11.4366
book	-11.4371
charge	-11.4376
sensitive	-11.4376
shore	-11.4378
craft	-11.4382
rafts	-11.4382
▁infect	-11.4394
▁Remov	-11.4397
▁weigh	-11.44
▁occupie	-11.4404
▁associate	-11.4405
▁navigat	-11.4407
▁ultimate	-11.4411
nces	-11.4421
cancer	-11.4425
▁rubb	-11.4426
▁equip	-11.4431
tirling	-11.4431
▁advent	-11.4432
▁initiat	-11.4432
▁happi	-11.4433
ficiency	-11.4433
▁savo	-11.4433
▁percent	-11.4433
▁irregular	-11.4434
▁Friend	-11.4435
▁baguette	-11.4435
▁corridor	-11.4435
▁corticosteroid	-11.4435
▁monument	-11.4435
▁newspaper	-11.4435
▁seizure	-11.4435
▁squirrel	-11.4435
▁virgin	-11.4435
ceptive	-11.4435
diploma	-11.4435
eanwhile	-11.4435
▁Astragan	-11.4435
▁Business	-11.4435
▁Example	-11.4435
▁General	-11.4435
▁Israel	-11.4435
▁Observ	-11.4435
▁Policy	-11.4435
▁Practic	-11.4435
▁Rather	-11.4435
▁SITE	-11.4435
▁Support	-11.4435
▁abundance	-11.4435
▁anatomy	-11.4435
▁announcement	-11.4435
▁appliqu	-11.4435
▁approval	-11.4435
▁array	-11.4435
▁biscuit	-11.4435
▁breastfeeding	-11.4435
▁buttocks	-11.4435
▁candidiasis	-11.4435
▁century	-11.4435
▁chemistry	-11.4435
▁circuit	-11.4435
▁contamination	-11.4435
▁contradict	-11.4435
▁currency	-11.4435
▁damaging	-11.4435
▁dancing	-11.4435
▁dizziness	-11.4435
▁embrace	-11.4435
▁eternal	-11.4435
▁eucalyptus	-11.4435
▁explanation	-11.4435
▁extinguish	-11.4435
▁fantasies	-11.4435
▁fascinating	-11.4435
▁feminine	-11.4435
▁flexibility	-11.4435
▁fundamental	-11.4435
▁gourmet	-11.4435
▁headphones	-11.4435
▁hobbies	-11.4435
▁hydraulic	-11.4435
▁impregnation	-11.4435
▁intelligent	-11.4435
▁lavender	-11.4435
▁leisure	-11.4435
▁microclimate	-11.4435
▁modified	-11.4435
▁nutritious	-11.4435
▁obsessive	-11.4435
▁plunge	-11.4435
▁proximity	-11.4435
▁ridiculous	-11.4435
▁simplifie	-11.4435
▁simulate	-11.4435
▁stood	-11.4435
▁suspicious	-11.4435
▁tendency	-11.4435
▁typewriter	-11.4435
▁uncertain	-11.4435
▁underground	-11.4435
▁Museum	-11.4435
▁Typical	-11.4435
▁colour	-11.4435
▁commission	-11.4435
▁duties	-11.4435
▁erotic	-11.4435
▁hiding	-11.4435
▁severity	-11.4435
▁strategic	-11.4435
▁windmill	-11.4435
▁Dark	-11.4435
▁autorun	-11.4435
▁grasp	-11.4435
▁litter	-11.4435
▁sterile	-11.4435
▁verified	-11.4435
▁Great	-11.4435
▁insulin	-11.4435
▁Wait	-11.4435
▁corset	-11.4435
▁Life	-11.4435
▁Power	-11.4435
▁absent	-11.4435
▁alternately	-11.4435
▁shelter	-11.4435
▁Black	-11.4435
▁Stained	-11.4435
▁flag	-11.4435
▁heaven	-11.4435
▁Design	-11.4435
▁drum	-11.4435
▁freelance	-11.4435
▁slave	-11.4435
▁droplets	-11.4435
▁silent	-11.4435
▁swimming	-11.4435
▁delve	-11.4435
▁Enter	-11.4435
▁Wall	-11.4435
▁Time	-11.4435
▁moreover	-11.4435
▁forehead	-11.4435
▁revise	-11.4435
▁winner	-11.4435
▁fond	-11.4435
▁Decid	-11.4435
▁victor	-11.4435
▁insured	-11.4435
▁refusal	-11.4435
▁restoring	-11.4435
▁civilization	-11.4435
▁blame	-11.4435
▁forgive	-11.4435
▁catering	-11.4436
etermine	-11.4436
▁Basically	-11.4436
▁limbs	-11.4436
▁organizing	-11.4436
▁specifications	-11.4436
▁wove	-11.4436
▁sheep	-11.4437
▁intestine	-11.4437
▁Send	-11.4437
▁axis	-11.4437
▁shipping	-11.4437
▁greenhouse	-11.4437
▁harness	-11.4437
▁Track	-11.4437
▁friendship	-11.4437
▁delicacies	-11.4437
▁pike	-11.4437
▁recreation	-11.4438
▁anger	-11.4439
▁chart	-11.444
▁subtitles	-11.444
hicken	-11.444
▁waterproof	-11.444
▁customized	-11.444
▁partnership	-11.444
▁Way	-11.4441
▁deletion	-11.4441
▁decent	-11.4441
▁retail	-11.4441
▁reject	-11.4442
▁diagonally	-11.4443
▁personalities	-11.4443
▁Never	-11.4444
▁lime	-11.4445
▁contribution	-11.4446
▁perch	-11.4446
▁upgrade	-11.4449
▁yes	-11.445
▁identifier	-11.445
▁Eye	-11.4452
▁detection	-11.4452
▁Pour	-11.4453
▁lag	-11.4453
▁convinced	-11.4454
▁fitness	-11.4454
▁justified	-11.4457
Sound	-11.4458
▁freezer	-11.4458
▁Gentl	-11.4458
▁bark	-11.4461
▁sharpness	-11.4462
▁dial	-11.4463
▁urge	-11.4463
▁conception	-11.4464
▁hose	-11.4467
▁minuses	-11.4468
▁Dear	-11.447
▁wheat	-11.4471
▁justice	-11.4472
▁MA	-11.4473
▁partial	-11.4474
▁spur	-11.448
▁plank	-11.4484
▁wallet	-11.4492
▁Idea	-11.4502
▁bench	-11.451
▁Eat	-11.4542
cence	-11.4559
▁dragg	-11.4575
▁Paint	-11.4594
dimensional	-11.4613
tapping	-11.4624
uality	-11.4762
▁Goo	-11.4762
▁reproduce	-11.4789
▁tacti	-11.486
animate	-11.4879
uitable	-11.4886
▁crate	-11.4899
▁pron	-11.4919
▁spark	-11.4977
▁Main	-11.5118
▁photograph	-11.5132
▁preferabl	-11.5152
sequently	-11.5162
▁cereal	-11.521
▁bubble	-11.5211
▁strand	-11.5214
▁caus	-11.5306
▁excit	-11.5317
construct	-11.5376
white	-11.5377
system	-11.5377
school	-11.5377
clean	-11.5377
through	-11.5377
J	-11.5377
▁instant	-11.5386
▁medicin	-11.5402
▁offend	-11.5403
▁expose	-11.5404
▁rag	-11.5409
▁Natural	-11.5411
▁gradual	-11.5412
▁instruct	-11.5429
▁disrupt	-11.5429
▁expir	-11.543
▁committ	-11.5434
▁civil	-11.5434
Computer	-11.5435
compensation	-11.5435
muscular	-11.5435
pproximately	-11.5435
ymmetry	-11.5435
▁Account	-11.5435
▁Agree	-11.5435
▁Cambodia	-11.5435
▁Cardigan	-11.5435
▁Cheese	-11.5435
▁Director	-11.5435
▁Google	-11.5435
▁Montessori	-11.5435
▁Potato	-11.5435
▁Principle	-11.5435
▁Return	-11.5435
▁Thailand	-11.5435
▁absorption	-11.5435
▁accommodate	-11.5435
▁accommodation	-11.5435
▁acknowledge	-11.5435
▁behalf	-11.5435
▁blink	-11.5435
▁candidate	-11.5435
▁champagne	-11.5435
▁cigarette	-11.5435
▁clarified	-11.5435
▁coriander	-11.5435
▁deformed	-11.5435
▁dwell	-11.5435
▁elastin	-11.5435
▁enthusiasm	-11.5435
▁entitled	-11.5435
▁escape	-11.5435
▁evaporate	-11.5435
▁exploit	-11.5435
▁fascinate	-11.5435
▁filmmakers	-11.5435
▁fridge	-11.5435
▁geometry	-11.5435
▁globe	-11.5435
▁headdress	-11.5435
▁herself	-11.5435
▁horror	-11.5435
▁humpback	-11.5435
▁inactive	-11.5435
▁intuition	-11.5435
▁kefir	-11.5435
▁library	-11.5435
▁lightweight	-11.5435
▁manganese	-11.5435
▁manipulate	-11.5435
▁mathematic	-11.5435
▁memorize	-11.5435
▁nevertheless	-11.5435
▁outstanding	-11.5435
▁overwhelming	-11.5435
▁pneumatic	-11.5435
▁possibly	-11.5435
▁productivity	-11.5435
▁provoking	-11.5435
▁rainbow	-11.5435
▁retreat	-11.5435
▁rhinitis	-11.5435
▁ritual	-11.5435
▁routine	-11.5435
▁royal	-11.5435
▁saliva	-11.5435
▁sediment	-11.5435
▁senior	-11.5435
▁silicone	-11.5435
▁slaughter	-11.5435
▁spectrum	-11.5435
▁sunflower	-11.5435
▁sword	-11.5435
▁thrust	-11.5435
▁transplant	-11.5435
▁unacceptable	-11.5435
▁unconscious	-11.5435
▁upholster	-11.5435
▁verify	-11.5435
▁veterinarian	-11.5435
▁viscose	-11.5435
▁viscous	-11.5435
▁warehouse	-11.5435
▁waterfalls	-11.5435
▁watermelon	-11.5435
▁zinc	-11.5435
▁Correct	-11.5435
▁edema	-11.5435
▁imitate	-11.5435
▁inhabitants	-11.5435
▁pellet	-11.5435
▁snapshot	-11.5435
▁ureaplasm	-11.5435
graduate	-11.5435
▁Repeat	-11.5435
▁conquer	-11.5435
▁deficit	-11.5435
▁premium	-11.5435
▁southern	-11.5435
▁coarse	-11.5435
▁deja	-11.5435
▁handbag	-11.5435
▁ladies	-11.5435
▁mankind	-11.5435
▁sought	-11.5435
▁Own	-11.5435
▁Panel	-11.5435
▁grace	-11.5435
▁mystery	-11.5435
rotesque	-11.5435
▁braking	-11.5435
▁microbes	-11.5435
▁waist	-11.5435
▁Again	-11.5435
▁Attach	-11.5435
▁Cream	-11.5435
▁nominal	-11.5435
▁inherent	-11.5435
▁lumb	-11.5435
ERS	-11.5435
▁scandal	-11.5435
▁hub	-11.5435
▁itchiness	-11.5435
▁archive	-11.5435
▁updating	-11.5435
▁Help	-11.5435
▁ripe	-11.5435
▁goiter	-11.5435
▁citr	-11.5435
▁decod	-11.5435
▁angry	-11.5435
▁alternat	-11.5435
▁hire	-11.5435
▁confusion	-11.5435
▁sister	-11.5435
▁tourism	-11.5435
▁yard	-11.5435
▁insects	-11.5436
▁lawyer	-11.5436
▁lounge	-11.5436
▁Provide	-11.5436
▁thinner	-11.5436
▁lyric	-11.5436
▁trauma	-11.5436
▁export	-11.5436
▁THI	-11.5436
▁lesion	-11.5436
flies	-11.5436
▁comfortably	-11.5436
▁buns	-11.5437
▁leaflet	-11.5437
▁inhale	-11.5437
▁refin	-11.5437
▁renewable	-11.5438
▁repay	-11.5438
▁logging	-11.5438
▁notebook	-11.5438
▁grateful	-11.5438
▁urination	-11.5438
▁authorities	-11.5439
▁blanket	-11.5439
ION	-11.5439
▁Funny	-11.5439
▁OF	-11.544
▁disruption	-11.544
▁flavorful	-11.544
▁sentence	-11.544
▁pipeline	-11.544
▁separation	-11.544
▁appointment	-11.544
▁navigation	-11.5441
▁Stick	-11.5441
▁translation	-11.5442
▁wise	-11.5442
▁Email	-11.5442
▁bedtime	-11.5442
▁backlight	-11.5443
obile	-11.5443
▁ripple	-11.5444
▁booth	-11.5444
▁yellowish	-11.5444
▁Fold	-11.5445
▁twig	-11.5446
▁brass	-11.5447
▁negotiation	-11.5447
▁Stage	-11.545
▁spill	-11.5451
▁blockage	-11.5452
▁pollut	-11.5452
▁ridge	-11.5453
limb	-11.5454
▁progression	-11.5455
▁manga	-11.5463
▁coil	-11.5463
▁bug	-11.5464
lien	-11.5468
▁Shar	-11.5471
▁copywrit	-11.5472
ield	-11.5473
▁journalist	-11.5475
▁theater	-11.5492
▁indige	-11.5492
ferr	-11.5502
▁invert	-11.5549
ommittee	-11.5564
print	-11.562
▁Reduc	-11.5669
▁aggravate	-11.5673
ocrat	-11.5739
▁Non	-11.5769
▁Speak	-11.5928
▁mono	-11.6002
▁ensur	-11.6019
irony	-11.6191
graph	-11.6229
tact	-11.6251
▁emotion	-11.6304
▁knee	-11.6321
▁sensation	-11.6325
▁representative	-11.6329
sufficient	-11.6354
format	-11.6465
▁encod	-11.6469
▁requir	-11.6473
piece	-11.6474
genital	-11.6486
accessible	-11.6487
stream	-11.6488
glass	-11.6488
boy	-11.6488
consider	-11.6488
wanted	-11.6488
green	-11.6488
contain	-11.6489
claim	-11.6489
▁reinforc	-11.6504
▁warrant	-11.6526
▁quest	-11.654
▁cultivat	-11.6541
▁irrigat	-11.6541
▁commun	-11.6542
▁sustain	-11.6543
ompliance	-11.6544
opular	-11.6544
▁cooperat	-11.6544
ehind	-11.6544
anufacturers	-11.6545
ecessary	-11.6545
cycl	-11.6545
▁yell	-11.6545
▁sail	-11.6546
▁phenomena	-11.6546
▁substantia	-11.6546
▁tempt	-11.6546
cademy	-11.6546
cetylcholine	-11.6546
eparable	-11.6546
▁British	-11.6546
▁Effective	-11.6546
▁Essential	-11.6546
▁External	-11.6546
▁Hollywood	-11.6546
▁Important	-11.6546
▁Lanka	-11.6546
▁Malaysia	-11.6546
▁Management	-11.6546
▁Measure	-11.6546
▁Mountain	-11.6546
▁NTT	-11.6546
▁Normal	-11.6546
▁Optim	-11.6546
▁Philippines	-11.6546
▁Possible	-11.6546
▁Previously	-11.6546
▁Professional	-11.6546
▁Simply	-11.6546
▁Strong	-11.6546
▁Visitor	-11.6546
▁abnormal	-11.6546
▁abrasive	-11.6546
▁aerosol	-11.6546
▁babies	-11.6546
▁bandwidth	-11.6546
▁carnival	-11.6546
▁chapter	-11.6546
▁chlorine	-11.6546
▁collision	-11.6546
▁consumable	-11.6546
▁dehydration	-11.6546
▁detachment	-11.6546
▁disclosure	-11.6546
▁district	-11.6546
▁elegance	-11.6546
▁evolving	-11.6546
▁explosi	-11.6546
▁facility	-11.6546
▁fluorescence	-11.6546
▁gratitude	-11.6546
▁guidance	-11.6546
▁gymnastic	-11.6546
▁handkerchief	-11.6546
▁humiliate	-11.6546
▁impurities	-11.6546
▁incentive	-11.6546
▁industries	-11.6546
▁intercourse	-11.6546
▁intimacy	-11.6546
▁intrigue	-11.6546
▁jerk	-11.6546
▁libraries	-11.6546
▁linoleum	-11.6546
▁loneliness	-11.6546
▁lumen	-11.6546
▁magni	-11.6546
▁malware	-11.6546
▁melodies	-11.6546
▁molecul	-11.6546
▁nausea	-11.6546
▁obesity	-11.6546
▁omeprazole	-11.6546
▁opaque	-11.6546
▁overweight	-11.6546
▁plywood	-11.6546
▁prescription	-11.6546
▁princess	-11.6546
▁receptors	-11.6546
▁reservoir	-11.6546
▁sandpaper	-11.6546
▁schoolchildren	-11.6546
▁shimmer	-11.6546
▁stubborn	-11.6546
▁subscription	-11.6546
▁substitute	-11.6546
▁surrender	-11.6546
▁tragedy	-11.6546
▁transverse	-11.6546
▁turtleneck	-11.6546
▁unreasonabl	-11.6546
▁unscrew	-11.6546
▁venture	-11.6546
▁versatility	-11.6546
▁voucher	-11.6546
▁zoom	-11.6546
▁Eliminat	-11.6546
▁Period	-11.6546
▁announced	-11.6546
▁apparent	-11.6546
▁assimilat	-11.6546
▁awesome	-11.6546
▁courtyard	-11.6546
▁crime	-11.6546
▁french	-11.6546
▁hookah	-11.6546
▁montessori	-11.6546
▁picnic	-11.6546
▁spike	-11.6546
▁steak	-11.6546
▁witness	-11.6546
▁Amaz	-11.6546
▁Manager	-11.6546
▁Prevent	-11.6546
▁Together	-11.6546
▁cancellation	-11.6546
▁intellect	-11.6546
▁Limit	-11.6546
▁Print	-11.6546
▁cleanliness	-11.6546
▁eyeliner	-11.6546
▁flip	-11.6546
▁laminate	-11.6546
▁nodule	-11.6546
▁sprout	-11.6546
▁ultra	-11.6546
▁Active	-11.6546
▁avatar	-11.6546
▁seminar	-11.6546
▁pastime	-11.6546
▁Ideally	-11.6546
▁condom	-11.6546
▁vote	-11.6546
▁eager	-11.6546
▁orientation	-11.6546
▁sulf	-11.6546
▁turnover	-11.6546
esteem	-11.6546
▁repaint	-11.6546
▁Green	-11.6546
▁True	-11.6546
▁serial	-11.6546
▁Delic	-11.6546
monetary	-11.6546
▁protest	-11.6546
isdom	-11.6546
▁elite	-11.6546
▁inherit	-11.6546
▁carnation	-11.6546
▁slit	-11.6546
▁burger	-11.6546
▁fading	-11.6546
▁cheer	-11.6546
▁criticism	-11.6546
symptomatic	-11.6546
▁Tree	-11.6546
▁Contact	-11.6546
▁addressee	-11.6546
▁outdated	-11.6546
▁unused	-11.6546
▁boost	-11.6546
▁impuls	-11.6546
▁Poly	-11.6547
▁pores	-11.6547
▁soothing	-11.6547
▁Prime	-11.6547
▁pads	-11.6547
▁deny	-11.6547
▁drama	-11.6547
▁notify	-11.6547
▁axle	-11.6547
▁Highlight	-11.6547
▁rugby	-11.6547
gawa	-11.6547
▁mobility	-11.6547
▁medal	-11.6547
▁oak	-11.6548
▁snowball	-11.6548
▁House	-11.6548
▁hallway	-11.6548
▁jaw	-11.6548
▁Count	-11.6549
▁fermentation	-11.6549
▁prefix	-11.6549
▁taught	-11.6549
▁Cutlet	-11.6549
▁shout	-11.6549
▁liability	-11.655
▁Gues	-11.655
▁rotating	-11.655
▁prize	-11.655
▁filmmaking	-11.655
▁employment	-11.6551
▁investors	-11.6551
▁crane	-11.6551
▁expiration	-11.6551
▁Free	-11.6552
▁indeed	-11.6552
▁Tools	-11.6553
▁lick	-11.6553
▁millet	-11.6553
▁south	-11.6553
▁renew	-11.6554
▁earnings	-11.6554
▁neuro	-11.6555
▁confession	-11.6555
▁shipment	-11.6555
▁atoms	-11.6555
▁airport	-11.6556
▁Day	-11.6557
▁pinch	-11.6557
▁realities	-11.6559
▁Feel	-11.6561
▁pub	-11.6562
▁mystic	-11.6567
▁crumble	-11.6574
▁plain	-11.6577
Format	-11.6581
▁Specialist	-11.6589
▁peaceful	-11.6595
▁Turk	-11.6597
▁reuse	-11.6599
remier	-11.661
▁rh	-11.6617
▁neutralize	-11.6621
▁joyful	-11.6661
▁cli	-11.6667
▁seize	-11.6678
redit	-11.6687
▁skillful	-11.6738
ibl	-11.6769
proof	-11.6787
otherapy	-11.6813
Propert	-11.7267
product	-11.7407
▁marinat	-11.7477
call	-11.7491
layer	-11.7528
lateral	-11.7544
▁pancake	-11.7573
▁restriction	-11.7573
▁mushroom	-11.7574
▁illustration	-11.7575
udience	-11.7577
▁preserv	-11.7659
▁chop	-11.7692
▁disabl	-11.7715
▁swell	-11.7719
▁cheat	-11.7728
▁enabl	-11.7731
search	-11.7734
comfort	-11.7737
Start	-11.7737
clamp	-11.7737
healthy	-11.7738
Japan	-11.7738
service	-11.7738
prepared	-11.7738
natural	-11.7738
from	-11.7738
program	-11.7739
slip	-11.7739
▁promis	-11.7753
▁scatter	-11.7754
titude	-11.7769
▁hug	-11.7774
▁crisp	-11.7776
▁gloss	-11.7777
motivat	-11.7779
▁urin	-11.7783
▁govern	-11.7792
rivacy	-11.7793
▁Trac	-11.7793
nstitution	-11.7793
sumption	-11.7795
ortgage	-11.7795
▁forgot	-11.7795
▁metaboli	-11.7796
▁Registr	-11.7796
▁automobile	-11.7796
▁estrogen	-11.7796
▁gravy	-11.7796
▁uninstall	-11.7796
mplifier	-11.7796
phylactic	-11.7796
utomotive	-11.7796
▁Council	-11.7796
▁Drink	-11.7796
▁Electric	-11.7796
▁Exercise	-11.7796
▁Greece	-11.7796
▁Independent	-11.7796
▁Louvre	-11.7796
▁Pastis	-11.7796
▁Perfect	-11.7796
▁Scheme	-11.7796
▁Specific	-11.7796
▁Square	-11.7796
▁Understand	-11.7796
▁abbreviat	-11.7796
▁ancestors	-11.7796
▁bladder	-11.7796
▁blurred	-11.7796
▁bracelet	-11.7796
▁breathtaking	-11.7796
▁capricious	-11.7796
▁cardiovascular	-11.7796
▁caterpillar	-11.7796
▁cervix	-11.7796
▁chassis	-11.7796
▁cheekbone	-11.7796
▁college	-11.7796
▁continent	-11.7796
▁controvers	-11.7796
▁coronavirus	-11.7796
▁deactivate	-11.7796
▁decoction	-11.7796
▁descend	-11.7796
▁destructive	-11.7796
▁diffuse	-11.7796
▁diligent	-11.7796
▁dramatically	-11.7796
▁electrolyte	-11.7796
▁embodiment	-11.7796
▁enchant	-11.7796
▁encrypt	-11.7796
▁engaging	-11.7796
▁enlarge	-11.7796
▁faculty	-11.7796
▁foliage	-11.7796
▁gallery	-11.7796
▁gesture	-11.7796
▁glucose	-11.7796
▁grape	-11.7796
▁guitar	-11.7796
▁hesitate	-11.7796
▁hobby	-11.7796
▁identification	-11.7796
▁impeccable	-11.7796
▁inflamed	-11.7796
▁instinct	-11.7796
▁intricacies	-11.7796
▁lamination	-11.7796
▁lettuce	-11.7796
▁ligament	-11.7796
▁loggia	-11.7796
▁lubrication	-11.7796
▁maneuver	-11.7796
▁matrix	-11.7796
▁methane	-11.7796
▁mucosa	-11.7796
▁multimedia	-11.7796
▁nylon	-11.7796
▁pandemic	-11.7796
▁paraffin	-11.7796
▁physiognomy	-11.7796
▁plinth	-11.7796
▁polyurethane	-11.7796
▁precipitation	-11.7796
▁prefecture	-11.7796
▁prison	-11.7796
▁privilege	-11.7796
▁probiotics	-11.7796
▁protrud	-11.7796
▁pyramid	-11.7796
▁rebuild	-11.7796
▁refrain	-11.7796
▁regulations	-11.7796
▁relevance	-11.7796
▁resentment	-11.7796
▁rewrite	-11.7796
▁saturation	-11.7796
▁semantic	-11.7796
▁sprocket	-11.7796
▁stolen	-11.7796
▁subordinate	-11.7796
▁supercooling	-11.7796
▁suppliers	-11.7796
▁surfing	-11.7796
▁survival	-11.7796
▁swivel	-11.7796
▁synthesis	-11.7796
▁tachycardia	-11.7796
▁tampon	-11.7796
▁tassel	-11.7796
▁threshold	-11.7796
▁triceps	-11.7796
▁unchanged	-11.7796
▁unconditional	-11.7796
▁universe	-11.7796
▁university	-11.7796
▁unlimited	-11.7796
▁unnoticed	-11.7796
▁unobtrusive	-11.7796
▁unpretentious	-11.7796
▁vanilla	-11.7796
▁vegetarian	-11.7796
▁vertebrae	-11.7796
▁vibration	-11.7796
▁vinyl	-11.7796
▁violence	-11.7796
▁worries	-11.7796
▁worthwhile	-11.7796
▁John	-11.7796
▁Large	-11.7796
▁Spirit	-11.7796
▁York	-11.7796
▁anticipat	-11.7796
▁extrude	-11.7796
▁fortress	-11.7796
▁impeller	-11.7796
▁orthop	-11.7796
▁overclock	-11.7796
▁overhaul	-11.7796
▁stadium	-11.7796
▁Require	-11.7796
▁stalk	-11.7796
▁Wrap	-11.7796
▁backpack	-11.7796
▁flare	-11.7796
▁rearrange	-11.7796
▁Expert	-11.7796
▁Flower	-11.7796
▁Harve	-11.7796
▁Paper	-11.7796
▁affectionate	-11.7796
▁embroider	-11.7796
▁mutation	-11.7796
▁Focus	-11.7796
▁Smart	-11.7796
▁addiction	-11.7796
▁invoice	-11.7796
▁Soft	-11.7796
▁piano	-11.7796
▁recess	-11.7796
▁Gift	-11.7796
▁buried	-11.7796
▁deadlines	-11.7796
▁indication	-11.7796
▁sensual	-11.7796
▁Train	-11.7796
▁brew	-11.7796
▁gasket	-11.7796
▁coca	-11.7796
▁crew	-11.7796
▁inquiry	-11.7796
▁Fund	-11.7796
▁headlights	-11.7796
▁Brow	-11.7796
▁Adher	-11.7796
▁padd	-11.7796
▁weekend	-11.7796
▁ferry	-11.7796
▁stairs	-11.7796
▁wiring	-11.7796
▁yolk	-11.7796
▁confectionery	-11.7796
▁fiberglass	-11.7796
▁symmetrical	-11.7796
▁alleged	-11.7796
▁hill	-11.7796
▁shred	-11.7796
▁personnel	-11.7796
▁mooring	-11.7796
▁coral	-11.7796
▁elsewhere	-11.7796
investigation	-11.7796
▁Center	-11.7796
▁entity	-11.7796
▁echo	-11.7796
▁confront	-11.7796
▁anchor	-11.7797
▁trademark	-11.7797
▁flywheel	-11.7797
▁sailors	-11.7797
▁Yoshi	-11.7797
▁Turkish	-11.7797
▁sift	-11.7797
▁sind	-11.7797
Orange	-11.7797
▁monster	-11.7797
▁pharmacies	-11.7797
▁Call	-11.7797
▁clipboard	-11.7797
▁digitization	-11.7798
vigor	-11.7798
▁firms	-11.7798
▁rubles	-11.7798
▁skipped	-11.7798
▁enthusiastic	-11.7798
▁passkey	-11.7798
▁savory	-11.7799
▁Financ	-11.7799
▁shame	-11.7799
▁beige	-11.7799
▁biological	-11.7799
▁Wash	-11.78
▁torso	-11.78
iruses	-11.78
▁dying	-11.78
▁snowmen	-11.78
▁Operat	-11.78
▁Spain	-11.7801
▁fellow	-11.7801
▁arose	-11.7801
▁antique	-11.7802
▁rash	-11.7802
▁comic	-11.7804
▁Law	-11.7806
▁Hall	-11.7807
dental	-11.7811
▁denote	-11.7818
fusion	-11.7823
▁Boot	-11.7841
▁Oda	-11.7844
Mouse	-11.7866
gaming	-11.7877
▁criticize	-11.7884
tiful	-11.7888
▁harmonica	-11.7989
▁Wav	-11.8011
ogenic	-11.8344
▁squeez	-11.8418
▁encourag	-11.8476
production	-11.8521
▁Summ	-11.8533
ommunication	-11.8622
▁diagnos	-11.8686
▁appreciat	-11.8695
jury	-11.8724
logger	-11.8764
▁interfer	-11.8765
▁impart	-11.8811
▁execut	-11.8862
▁Litt	-11.8882
Flash	-11.8934
▁creator	-11.9001
▁nutrient	-11.9001
▁antibiotic	-11.9002
lready	-11.9012
▁Perform	-11.9046
▁translat	-11.9064
thod	-11.9095
equential	-11.9098
writing	-11.9108
▁Access	-11.9113
▁releas	-11.9137
adequate	-11.9165
balanced	-11.9165
grown	-11.9166
town	-11.9166
sound	-11.9166
What	-11.9166
▁politic	-11.9167
amount	-11.9168
high	-11.9169
fix	-11.9174
▁suspend	-11.9183
▁moisten	-11.9183
scene	-11.9193
▁convince	-11.9193
▁pronounce	-11.9194
▁pharmac	-11.9203
▁energ	-11.9208
▁borrow	-11.9211
▁sandwich	-11.9213
▁preparat	-11.9213
▁exclusi	-11.922
enthusiast	-11.9222
ndustrial	-11.9222
escription	-11.9222
iamond	-11.9222
▁recreat	-11.9223
▁squa	-11.9223
quipment	-11.9223
radually	-11.9224
ecutive	-11.9224
Digital	-11.9224
olypropylene	-11.9224
roccoli	-11.9224
▁Alcohol	-11.9224
▁Berlin	-11.9224
▁Employe	-11.9224
▁Ethernet	-11.9224
▁Extension	-11.9224
▁Friday	-11.9224
▁Government	-11.9224
▁INFORMATION	-11.9224
▁Netherlands	-11.9224
▁Olymp	-11.9224
▁Osaka	-11.9224
▁Picture	-11.9224
▁Smoking	-11.9224
▁Undoubted	-11.9224
▁Vacuum	-11.9224
▁Window	-11.9224
▁YOU	-11.9224
▁administer	-11.9224
▁agencies	-11.9224
▁airplane	-11.9224
▁ambulance	-11.9224
▁analyzing	-11.9224
▁antibodies	-11.9224
▁ashamed	-11.9224
▁atherosclerosis	-11.9224
▁avocado	-11.9224
▁bamboo	-11.9224
▁barbell	-11.9224
▁bluish	-11.9224
▁breadcrumbs	-11.9224
▁brilliance	-11.9224
▁bronchi	-11.9224
▁bronchitis	-11.9224
▁bumps	-11.9224
▁caffeine	-11.9224
▁cascad	-11.9224
▁closure	-11.9224
▁compatriots	-11.9224
▁conservation	-11.9224
▁constitute	-11.9224
▁convincing	-11.9224
▁corpse	-11.9224
▁coupling	-11.9224
▁craftsmanship	-11.9224
▁criminal	-11.9224
▁dandruff	-11.9224
▁declining	-11.9224
▁deployed	-11.9224
▁emptiness	-11.9224
▁emulsion	-11.9224
▁encephalopathy	-11.9224
▁evaporation	-11.9224
▁exhale	-11.9224
▁figurine	-11.9224
▁flicker	-11.9224
▁fracture	-11.9224
▁fraudulent	-11.9224
▁grassroots	-11.9224
▁gypsum	-11.9224
▁hairdryer	-11.9224
▁hygienic	-11.9224
▁illuminate	-11.9224
▁impairment	-11.9224
▁inevitable	-11.9224
▁intelligence	-11.9224
▁intuitive	-11.9224
▁invalid	-11.9224
▁malignant	-11.9224
▁mascara	-11.9224
▁masonry	-11.9224
▁meditation	-11.9224
▁migraine	-11.9224
▁oppose	-11.9224
▁overwhelmed	-11.9224
▁physics	-11.9224
▁practicing	-11.9224
▁prestigious	-11.9224
▁professor	-11.9224
▁psyche	-11.9224
▁pudding	-11.9224
▁puncture	-11.9224
▁quench	-11.9224
▁rehabilitation	-11.9224
▁reincarnation	-11.9224
▁rudeness	-11.9224
▁scrapbooking	-11.9224
▁shrimp	-11.9224
▁skeleton	-11.9224
▁skewers	-11.9224
▁spectacle	-11.9224
▁studio	-11.9224
▁synonym	-11.9224
▁tablespoon	-11.9224
▁talisman	-11.9224
▁terrain	-11.9224
▁tummy	-11.9224
▁unprotected	-11.9224
▁unsafe	-11.9224
▁uterine	-11.9224
▁vaccine	-11.9224
▁vector	-11.9224
▁vermouth	-11.9224
▁versatile	-11.9224
▁voluminous	-11.9224
▁Audio	-11.9224
▁Damage	-11.9224
▁Diagnos	-11.9224
▁Happ	-11.9224
▁Number	-11.9224
▁Text	-11.9224
▁ambassador	-11.9224
▁crashed	-11.9224
▁cruci	-11.9224
▁dopamine	-11.9224
▁entrepreneur	-11.9224
▁graphite	-11.9224
▁multiplayer	-11.9224
▁puff	-11.9224
▁reinforcement	-11.9224
▁spyware	-11.9224
▁sweep	-11.9224
▁tomorrow	-11.9224
▁troubleshoot	-11.9224
▁worship	-11.9224
Advance	-11.9224
▁Fresh	-11.9224
▁Future	-11.9224
▁Permission	-11.9224
▁abrasion	-11.9224
▁caramel	-11.9224
▁demolish	-11.9224
▁enforce	-11.9224
▁pupil	-11.9224
▁sieve	-11.9224
▁yacht	-11.9224
▁dentist	-11.9224
▁regenerat	-11.9224
▁lamb	-11.9224
▁polygon	-11.9224
▁thighs	-11.9224
uestions	-11.9224
▁Castle	-11.9224
▁Milk	-11.9224
▁Pirate	-11.9224
▁debut	-11.9224
▁dominant	-11.9224
▁overpay	-11.9224
▁regain	-11.9224
▁retell	-11.9224
▁whiskey	-11.9224
▁Baby	-11.9224
▁Stress	-11.9224
▁cyber	-11.9224
▁overtake	-11.9224
▁Club	-11.9224
▁emboss	-11.9224
▁flap	-11.9224
▁slander	-11.9224
▁arteries	-11.9224
▁retire	-11.9224
▁shortcut	-11.9224
▁entities	-11.9224
▁framing	-11.9224
▁Condition	-11.9224
▁Session	-11.9224
▁pretend	-11.9224
▁zip	-11.9224
▁Self	-11.9224
▁Stylis	-11.9224
▁liberate	-11.9224
▁Strip	-11.9224
▁clove	-11.9224
▁peach	-11.9224
▁Router	-11.9224
▁funeral	-11.9224
▁justify	-11.9224
▁obey	-11.9224
▁expedi	-11.9224
▁metallic	-11.9225
▁Trade	-11.9225
▁Later	-11.9225
▁saline	-11.9225
▁retro	-11.9225
▁tactics	-11.9225
▁trench	-11.9225
▁Photograph	-11.9225
▁infants	-11.9225
▁wore	-11.9225
▁Egyptian	-11.9225
▁mustache	-11.9225
▁Peru	-11.9225
adows	-11.9225
▁longitud	-11.9225
centric	-11.9225
▁latch	-11.9225
▁tradesca	-11.9225
▁expertise	-11.9225
disciplin	-11.9225
▁herpes	-11.9225
▁hue	-11.9225
adays	-11.9225
▁bomb	-11.9225
▁ruin	-11.9225
timid	-11.9225
▁Corn	-11.9226
▁visibility	-11.9226
▁audit	-11.9226
▁sperm	-11.9226
▁Need	-11.9226
arcel	-11.9227
▁chrom	-11.9227
Harry	-11.9227
▁ailment	-11.9227
▁petals	-11.9227
▁penalt	-11.9228
▁acne	-11.9228
hydra	-11.923
Magic	-11.9231
uzz	-11.9234
▁Chris	-11.9237
▁systematic	-11.9238
lease	-11.924
▁End	-11.924
Clear	-11.924
▁subsid	-11.9243
▁polar	-11.9243
assage	-11.9252
▁delt	-11.9258
eij	-11.927
owned	-11.9281
▁imperceptibl	-11.9293
ggle	-11.9315
▁hysteri	-11.9349
▁counterpart	-11.9393
▁Tea	-11.9401
▁Psycholog	-11.951
preview	-11.9687
▁reproduc	-11.9731
mulate	-11.9836
▁peculiarit	-11.9901
▁congratulat	-12.0083
▁Prepar	-12.0174
luster	-12.0212
grammatical	-12.0231
▁dimension	-12.0335
▁Secur	-12.0424
azu	-12.0488
▁analytic	-12.0597
▁estimat	-12.0602
cellul	-12.0641
▁cube	-12.0666
▁chestnut	-12.0667
▁shoe	-12.0671
closed	-12.0724
▁virtu	-12.0731
▁struggl	-12.0801
▁journal	-12.0822
▁cylind	-12.0823
float	-12.0831
intensive	-12.0832
speaking	-12.0832
Play	-12.0832
efficient	-12.0833
black	-12.0833
good	-12.0833
check	-12.0833
video	-12.0833
design	-12.0847
▁Finish	-12.0849
▁historic	-12.085
burg	-12.0857
▁identifie	-12.0861
▁negotiat	-12.087
▁collage	-12.0875
▁cyclam	-12.0881
uccessful	-12.0885
ynthetic	-12.0886
▁ferment	-12.0886
▁quit	-12.0886
▁irritat	-12.0887
fortunately	-12.0887
emporary	-12.0889
ompanies	-12.0889
lastering	-12.0889
ottage	-12.0889
▁nurse	-12.0889
ermanent	-12.0889
elieve	-12.0889
▁Compar	-12.089
echnology	-12.089
echanical	-12.089
symmetric	-12.0891
▁temper	-12.0891
▁whisk	-12.0891
tropic	-12.0891
▁permit	-12.0891
ydrogen	-12.0891
▁statue	-12.0891
Adjust	-12.0891
Celebrat	-12.0891
GRA	-12.0891
Meloman	-12.0891
Reboot	-12.0891
Troubleshooting	-12.0891
aerobic	-12.0891
badminton	-12.0891
grandfather	-12.0891
intermediate	-12.0891
regulating	-12.0891
▁Argentina	-12.0891
▁Banana	-12.0891
▁Cabbage	-12.0891
▁California	-12.0891
▁Catholic	-12.0891
▁Company	-12.0891
▁Competent	-12.0891
▁Constant	-12.0891
▁Continu	-12.0891
▁Document	-12.0891
▁Fabric	-12.0891
▁Fortunately	-12.0891
▁Frequent	-12.0891
▁Fukushima	-12.0891
▁Grind	-12.0891
▁Hogwarts	-12.0891
▁Language	-12.0891
▁Origami	-12.0891
▁Prefecture	-12.0891
▁Public	-12.0891
▁Strateg	-12.0891
▁Stuff	-12.0891
▁Technique	-12.0891
▁Thierry	-12.0891
▁acoustic	-12.0891
▁agritech	-12.0891
▁albatross	-12.0891
▁amusement	-12.0891
▁anesthetic	-12.0891
▁antioxidant	-12.0891
▁arbitrar	-12.0891
▁arriving	-12.0891
▁arthritis	-12.0891
▁bicycle	-12.0891
▁bioreactor	-12.0891
▁blonde	-12.0891
▁casserole	-12.0891
▁ceremony	-12.0891
▁championship	-12.0891
▁chaotic	-12.0891
▁competing	-12.0891
▁comprehend	-12.0891
▁congestion	-12.0891
▁conjunctivitis	-12.0891
▁constrain	-12.0891
▁correlation	-12.0891
▁cosmetology	-12.0891
▁crotch	-12.0891
▁crowdfunding	-12.0891
▁dazzl	-12.0891
▁deficiencies	-12.0891
▁dermis	-12.0891
▁dictionary	-12.0891
▁dioxide	-12.0891
▁disagree	-12.0891
▁discontinu	-12.0891
▁dismissed	-12.0891
▁disseminate	-12.0891
▁earthquake	-12.0891
▁electrode	-12.0891
▁emperor	-12.0891
▁endocrinologist	-12.0891
▁entertained	-12.0891
▁epidermis	-12.0891
▁erection	-12.0891
▁etiquette	-12.0891
▁evaluating	-12.0891
▁exempl	-12.0891
▁genius	-12.0891
▁geographic	-12.0891
▁girdle	-12.0891
▁gladiator	-12.0891
▁graze	-12.0891
▁harbingers	-12.0891
▁hieroglyph	-12.0891
▁histamine	-12.0891
▁hypoallergeni	-12.0891
▁ignorance	-12.0891
▁illumination	-12.0891
▁illusion	-12.0891
▁ineffective	-12.0891
▁internship	-12.0891
▁irrelevant	-12.0891
▁junction	-12.0891
▁kilometer	-12.0891
▁launder	-12.0891
▁malaise	-12.0891
▁melody	-12.0891
▁menstruation	-12.0891
▁messenger	-12.0891
▁microscop	-12.0891
▁minitractor	-12.0891
▁monochrome	-12.0891
▁mycelium	-12.0891
▁neighborhood	-12.0891
▁oscillation	-12.0891
▁overestimate	-12.0891
▁overlook	-12.0891
▁pavilion	-12.0891
▁peripher	-12.0891
▁perpendicular	-12.0891
▁prosecut	-12.0891
▁purify	-12.0891
▁quilling	-12.0891
▁repository	-12.0891
▁responsibly	-12.0891
▁retrieve	-12.0891
▁rink	-12.0891
▁sauerkraut	-12.0891
▁shareholder	-12.0891
▁sophistication	-12.0891
▁soybean	-12.0891
▁stabilize	-12.0891
▁straightforward	-12.0891
▁strawberries	-12.0891
▁superimposed	-12.0891
▁swollen	-12.0891
▁technician	-12.0891
▁testimony	-12.0891
▁tulip	-12.0891
▁turkey	-12.0891
▁unbearabl	-12.0891
▁unprecedented	-12.0891
▁unpredictable	-12.0891
▁vendor	-12.0891
▁vulgar	-12.0891
▁whims	-12.0891
▁yesterday	-12.0891
▁zodiac	-12.0891
ccomplish	-12.0891
pitfalls	-12.0891
therosclero	-12.0891
▁Calculat	-12.0891
▁Church	-12.0891
▁Fashion	-12.0891
▁Secret	-12.0891
▁Toyota	-12.0891
▁Violation	-12.0891
▁baggage	-12.0891
▁bayonet	-12.0891
▁cardiologist	-12.0891
▁checkboxes	-12.0891
▁cilia	-12.0891
▁foci	-12.0891
▁ghost	-12.0891
▁hairdresser	-12.0891
▁inhibit	-12.0891
▁offensive	-12.0891
▁puzzle	-12.0891
▁ridicule	-12.0891
▁rosemary	-12.0891
▁spacious	-12.0891
▁violent	-12.0891
needlewoman	-12.0891
ollotype	-12.0891
▁Fencing	-12.0891
▁Glass	-12.0891
▁Gothic	-12.0891
▁Guide	-12.0891
▁Motivat	-12.0891
▁bonds	-12.0891
▁fleet	-12.0891
▁frustrati	-12.0891
▁gamut	-12.0891
▁infinity	-12.0891
▁laurel	-12.0891
▁phosphorus	-12.0891
▁supplies	-12.0891
▁thirst	-12.0891
▁thyme	-12.0891
▁Smoke	-12.0891
▁carriage	-12.0891
▁muffle	-12.0891
▁naked	-12.0891
▁oxide	-12.0891
▁scold	-12.0891
▁Maiden	-12.0891
▁Short	-12.0891
▁cherry	-12.0891
▁hacking	-12.0891
▁pamper	-12.0891
▁admit	-12.0891
▁outsourc	-12.0891
▁spindle	-12.0891
▁Drain	-12.0891
▁Local	-12.0891
▁Strict	-12.0891
▁amulet	-12.0891
▁torrent	-12.0891
bacteri	-12.0891
▁Dutch	-12.0891
▁Walk	-12.0891
▁conifer	-12.0891
▁oxidati	-12.0891
▁topiary	-12.0891
▁six	-12.0891
▁drew	-12.0891
▁invasion	-12.0891
▁reddish	-12.0891
questionnaire	-12.0891
▁emissions	-12.0891
▁contest	-12.0891
▁fool	-12.0891
▁hermetic	-12.0891
▁shaking	-12.0891
inegar	-12.0891
profe	-12.0891
▁Doctor	-12.0891
▁repost	-12.0891
▁Rinse	-12.0891
▁Arabi	-12.0891
▁allocation	-12.0891
▁formulations	-12.0891
▁matinee	-12.0891
▁seduce	-12.0891
▁bliss	-12.0891
▁duty	-12.0891
▁grading	-12.0891
▁Talk	-12.0891
▁fraction	-12.0891
▁haircut	-12.0891
▁intersect	-12.0891
▁shove	-12.0891
financing	-12.0891
▁Hope	-12.0891
▁terminate	-12.0891
▁issuance	-12.0891
migration	-12.0891
▁steep	-12.0891
▁ambitio	-12.0891
▁compromise	-12.0892
▁Image	-12.0892
▁rheumato	-12.0892
▁offense	-12.0892
▁optimis	-12.0892
▁perforat	-12.0892
Guard	-12.0892
▁Pull	-12.0892
▁Automat	-12.0892
tolerance	-12.0892
phane	-12.0892
eybo	-12.0892
▁Tower	-12.0894
▁Fire	-12.0895
▁Charl	-12.0896
▁Partners	-12.0896
voluntarily	-12.0896
Paste	-12.0897
▁Silk	-12.0897
judic	-12.0898
▁giga	-12.0899
▁pierc	-12.0901
▁Tune	-12.0901
ferential	-12.0902
▁molt	-12.0903
hermit	-12.0907
▁Locat	-12.091
vitaminosis	-12.0914
▁asthma	-12.0915
▁dare	-12.0935
iquid	-12.0937
annual	-12.0947
▁clutter	-12.0949
▁innocen	-12.095
Standard	-12.1108
garde	-12.1114
Auto	-12.1163
▁inflat	-12.1232
▁favorabl	-12.1262
▁secur	-12.1302
trivia	-12.1327
Security	-12.1381
prohibitions	-12.1381
deli	-12.1415
▁climat	-12.1417
eviate	-12.1633
▁Shav	-12.166
▁decreas	-12.1881
Spring	-12.1916
driven	-12.1929
▁contribut	-12.1938
▁consolidat	-12.2002
▁pav	-12.205
▁minimiz	-12.2122
▁phyto	-12.2406
founded	-12.2526
▁involv	-12.2559
▁commit	-12.2624
▁theoretical	-12.2629
▁participant	-12.2668
▁premise	-12.2668
luminum	-12.2669
vailability	-12.2669
▁complication	-12.267
lphabet	-12.267
partment	-12.2671
▁critic	-12.27
▁describ	-12.2702
▁Multipl	-12.2704
▁prescrib	-12.2756
spire	-12.2769
friend	-12.2808
▁vomit	-12.2814
▁configur	-12.2814
Device	-12.2831
circula	-12.2832
Install	-12.2832
favorable	-12.2832
front	-12.2832
developed	-12.2833
fashion	-12.2833
cloth	-12.2833
throw	-12.2833
finished	-12.2833
specific	-12.2833
where	-12.2846
▁precise	-12.2868
▁privat	-12.2869
▁confess	-12.2874
▁froze	-12.2875
▁subtitl	-12.2879
hould	-12.2886
lippers	-12.2886
▁adhesi	-12.2887
▁antivir	-12.2887
tudies	-12.2888
magine	-12.2889
abinet	-12.2889
nhalation	-12.2889
uckwheat	-12.289
xcellent	-12.289
echnical	-12.289
oncrete	-12.289
▁horizon	-12.2891
opportun	-12.2891
▁Hirok	-12.2891
▁Yamag	-12.2891
▁shrink	-12.2891
▁sympathi	-12.2891
ACTIONS	-12.2891
ATION	-12.2891
Indonesia	-12.2891
azole	-12.2891
curred	-12.2891
excursion	-12.2891
misunderstanding	-12.2891
ntihistamine	-12.2891
ollapsible	-12.2891
rapefruit	-12.2891
vascular	-12.2891
vertebral	-12.2891
▁Adapter	-12.2891
▁Belarus	-12.2891
▁Bradley	-12.2891
▁Build	-12.2891
▁Carpet	-12.2891
▁Colombia	-12.2891
▁Education	-12.2891
▁Energy	-12.2891
▁Error	-12.2891
▁Experiment	-12.2891
▁Fortune	-12.2891
▁Function	-12.2891
▁Identify	-12.2891
▁Lufthansa	-12.2891
▁Mondeo	-12.2891
▁Niagara	-12.2891
▁Organization	-12.2891
▁Pacific	-12.2891
▁Paralympic	-12.2891
▁Pizza	-12.2891
▁Platform	-12.2891
▁Postcard	-12.2891
▁Resident	-12.2891
▁Scandinavian	-12.2891
▁Singapore	-12.2891
▁Societ	-12.2891
▁Spanish	-12.2891
▁Traditionally	-12.2891
▁Transfer	-12.2891
▁Vitamins	-12.2891
▁adolescence	-12.2891
▁adrenaline	-12.2891
▁amplitude	-12.2891
▁anthrax	-12.2891
▁apricot	-12.2891
▁aspirations	-12.2891
▁bankrupt	-12.2891
▁barefoot	-12.2891
▁brochure	-12.2891
▁burgundy	-12.2891
▁calendula	-12.2891
▁certification	-12.2891
▁champignons	-12.2891
▁circumference	-12.2891
▁clerk	-12.2891
▁cobalt	-12.2891
▁comrades	-12.2891
▁conductivity	-12.2891
▁council	-12.2891
▁crankshaft	-12.2891
▁dashboard	-12.2891
▁deciduous	-12.2891
▁democracy	-12.2891
▁despair	-12.2891
▁desperate	-12.2891
▁diabetic	-12.2891
▁dictate	-12.2891
▁divination	-12.2891
▁eczema	-12.2891
▁elevator	-12.2891
▁embarrassed	-12.2891
▁embarrassment	-12.2891
▁epilep	-12.2891
▁exacerbation	-12.2891
▁excerpt	-12.2891
▁extravagant	-12.2891
▁faculties	-12.2891
▁fluctuat	-12.2891
▁frequencies	-12.2891
▁glazing	-12.2891
▁glycerin	-12.2891
▁goalkeeper	-12.2891
▁goddess	-12.2891
▁heartburn	-12.2891
▁hemorrhag	-12.2891
▁homogeneity	-12.2891
▁hurdles	-12.2891
▁hypotension	-12.2891
▁imbalance	-12.2891
▁infertility	-12.2891
▁jackpot	-12.2891
▁jealous	-12.2891
▁juiciness	-12.2891
▁lattice	-12.2891
▁legitimate	-12.2891
▁limestone	-12.2891
▁liqueur	-12.2891
▁masquerade	-12.2891
▁maturity	-12.2891
▁metastases	-12.2891
▁necessity	-12.2891
▁needlewomen	-12.2891
▁nostalgic	-12.2891
▁numbness	-12.2891
▁obligatory	-12.2891
▁opposition	-12.2891
▁organisation	-12.2891
▁parchment	-12.2891
▁pediatrician	-12.2891
▁perseverance	-12.2891
▁persuade	-12.2891
▁physiology	-12.2891
▁poverty	-12.2891
▁precaution	-12.2891
▁prelude	-12.2891
▁primitive	-12.2891
▁primordi	-12.2891
▁rejoic	-12.2891
▁renovation	-12.2891
▁rigor	-12.2891
▁rooster	-12.2891
▁salvation	-12.2891
▁scallop	-12.2891
▁semolina	-12.2891
▁shepherd	-12.2891
▁shook	-12.2891
▁slogan	-12.2891
▁smiling	-12.2891
▁sneakers	-12.2891
▁spermatozoa	-12.2891
▁stakeholder	-12.2891
▁sternum	-12.2891
▁storytelling	-12.2891
▁striving	-12.2891
▁swirl	-12.2891
▁testimonial	-12.2891
▁turquoise	-12.2891
▁typography	-12.2891
▁ultraviolet	-12.2891
▁unattractive	-12.2891
▁unavailable	-12.2891
▁uncommon	-12.2891
▁viscosity	-12.2891
▁vocabulary	-12.2891
▁volleyball	-12.2891
▁waffle	-12.2891
▁widget	-12.2891
▁zucchini	-12.2891
anguine	-12.2891
▁Comfort	-12.2891
▁Consumer	-12.2891
▁Cosmetic	-12.2891
▁Disclaimer	-12.2891
▁Excess	-12.2891
▁Exhibit	-12.2891
▁Found	-12.2891
▁Frame	-12.2891
▁Office	-12.2891
▁Piece	-12.2891
▁Plastic	-12.2891
▁celery	-12.2891
▁charisma	-12.2891
▁coincidence	-12.2891
▁colander	-12.2891
▁colpit	-12.2891
▁courier	-12.2891
▁custod	-12.2891
▁dishwash	-12.2891
▁dispense	-12.2891
▁divestment	-12.2891
▁ensemble	-12.2891
▁erected	-12.2891
▁exaggerat	-12.2891
▁explicit	-12.2891
▁gamma	-12.2891
▁inaccurate	-12.2891
▁movable	-12.2891
▁obstruct	-12.2891
q	-12.6767
