<unk>	0
<s>	0
</s>	0
、	-2.60252
の	-2.85969
。	-3.09347
▁	-3.37815
は	-3.96926
を	-3.98066
が	-4.17768
に	-4.33852
と	-4.71288
で	-4.73871
ます	-5.38415
や	-5.49234
から	-5.50337
し	-5.75929
です	-5.82084
または	-5.85466
する	-5.88963
そして	-5.93468
それは	-6.00825
な	-6.07097
て	-6.14863
か	-6.17943
」	-6.19149
も	-6.19701
い	-6.21436
あなたは	-6.22042
その	-6.22415
します	-6.25168
る	-6.25997
この	-6.28363
た	-6.38288
ことができます	-6.38352
ス	-6.44838
▁この	-6.45195
のために	-6.46985
された	-6.50032
ために	-6.51838
「	-6.52382
必要があります	-6.53228
して	-6.55294
では	-6.57653
すべての	-6.58152
した	-6.59927
こと	-6.63142
▁しかし	-6.63402
あなたの	-6.64849
く	-6.65815
方法	-6.68268
によって	-6.71472
それ	-6.73708
のための	-6.74845
として	-6.7611
人	-6.79479
そのような	-6.8077
には	-6.81081
もの	-6.81808
あなたが	-6.83842
でしょう	-6.86246
▁あなたが	-6.86717
および	-6.87951
り	-6.88425
的な	-6.92944
それを	-6.93677
ー	-6.94683
ように	-6.94927
ル	-6.96389
ました	-6.96688
性	-6.98676
さ	-6.98812
ています	-6.99971
多くの	-7.00679
時間	-7.01698
す	-7.01928
▁これは	-7.02337
である	-7.03722
することができます	-7.04485
があります	-7.06743
ている	-7.07261
機能	-7.09033
ない	-7.09338
いくつかの	-7.09677
ク	-7.0971
ら	-7.10109
▁それは	-7.11068
され	-7.11286
最も	-7.12105
ならば	-7.13808
より	-7.14095
▁そして	-7.14796
体	-7.16717
を持つ	-7.16835
への	-7.17105
される	-7.17535
ための	-7.17848
サービス	-7.18115
者	-7.18151
め	-7.18982
からの	-7.19481
すべて	-7.19753
色	-7.2028
する必要があります	-7.20626
お	-7.20747
って	-7.211
水	-7.2258
手	-7.2277
き	-7.23288
している	-7.23292
非常に	-7.23711
という	-7.23741
ト	-7.24774
ので	-7.25605
について	-7.25712
出	-7.26072
▁そのような	-7.26141
しています	-7.26577
ください	-7.26881
他の	-7.27085
ことを	-7.28229
・	-7.29065
であり	-7.32052
されている	-7.32384
されています	-7.32799
さまざまな	-7.32823
それが	-7.33897
物	-7.34137
一	-7.34312
ア	-7.35039
ド	-7.35258
彼の	-7.3599
場合は	-7.37323
▁したがって	-7.38454
場合	-7.40333
設定	-7.40547
ため	-7.40837
特別な	-7.41968
小さな	-7.42531
されます	-7.4332
ン	-7.43613
だけでなく	-7.43945
の中で	-7.45069
すぐに	-7.45394
的	-7.45748
ラ	-7.45952
リ	-7.45993
ことは	-7.46306
彼らの	-7.46528
ことができる	-7.46544
彼らは	-7.4834
▁「	-7.4904
デザイン	-7.49171
新しい	-7.49632
など	-7.50244
システム	-7.51075
イ	-7.5116
目	-7.51642
数	-7.52542
また	-7.52554
するために	-7.52955
下	-7.53475
場所	-7.53532
ジ	-7.54706
え	-7.54765
大	-7.55101
化	-7.55241
った	-7.55242
れ	-7.56214
リスト	-7.57192
プログラム	-7.57816
部分	-7.57873
してください	-7.59062
け	-7.59135
み	-7.5959
できます	-7.60368
がある	-7.60701
▁また	-7.60888
それら	-7.61138
インターネット	-7.61219
とき	-7.61316
ビデオ	-7.62848
ことが	-7.63064
使用	-7.63373
チ	-7.638
シ	-7.63827
作業	-7.64932
後	-7.65419
問題	-7.65743
上の	-7.65916
コンピュータ	-7.66879
気	-7.66967
まで	-7.67026
ロ	-7.67272
製品	-7.67451
上	-7.68158
ま	-7.68168
う	-7.68224
前に	-7.68867
ある	-7.69716
写真	-7.70168
料理	-7.70428
プロセス	-7.70491
大きな	-7.70508
これは	-7.7069
情報	-7.70933
用	-7.71363
材料	-7.71711
私たちは	-7.71772
中	-7.72045
間	-7.72223
ません	-7.72405
でも	-7.73159
マ	-7.7335
特定の	-7.73563
力	-7.73949
デバイス	-7.74088
ではありません	-7.74422
的に	-7.74667
カ	-7.74696
会議	-7.75246
になる	-7.76287
子	-7.76475
のに役立ちます	-7.76535
を使用して	-7.77099
同じ	-7.774
仕事	-7.78544
ときに	-7.78918
私は	-7.79732
ツール	-7.80438
サイト	-7.80534
行	-7.80702
ビジネス	-7.80704
オプション	-7.81342
異なる	-7.81587
すること	-7.81597
考え	-7.81926
必要な	-7.82617
不	-7.82757
てください	-7.82962
タ	-7.83196
ことができ	-7.83731
技術	-7.85471
これらの	-7.85562
コ	-7.8559
▁あなたは	-7.85624
種類の	-7.86172
データ	-7.86583
プ	-7.87229
わ	-7.87459
ゲーム	-7.87813
できる	-7.88202
味	-7.88778
レ	-7.88828
私たちの	-7.89143
結果	-7.89156
良い	-7.89192
▁これらの	-7.89325
それらを	-7.89331
ファイル	-7.89346
ではなく	-7.89648
行動	-7.89689
アプリケーション	-7.89979
ブランド	-7.89983
彼は	-7.90353
方	-7.90983
だ	-7.91136
顧客	-7.9152
レシピ	-7.91556
選択	-7.92361
ことです	-7.92678
本	-7.92943
を見る	-7.93409
度	-7.93464
▁さらに	-7.93553
います	-7.93613
にも	-7.93725
バ	-7.93928
装飾	-7.9436
よりも	-7.94367
ミ	-7.94688
心	-7.94736
ご	-7.94994
中に	-7.95403
にとって	-7.95696
人々	-7.95862
ウ	-7.96732
要素	-7.97439
家	-7.97741
エ	-7.98056
治療	-7.98281
モデル	-7.98668
特に	-7.98771
感	-7.99392
を使用する	-7.99807
ること	-8.00036
状況	-8.00538
内の	-8.00547
適切な	-8.00883
地	-8.01076
させる	-8.01142
何	-8.01165
素晴らしい	-8.0123
発	-8.01324
知	-8.01513
必要がある	-8.01901
美しい	-8.01937
実	-8.02081
薬	-8.02215
肉	-8.02273
日	-8.02638
少し	-8.02829
よく	-8.03021
を作る	-8.03105
ることができます	-8.03375
準備	-8.03395
常に	-8.03632
ブ	-8.03716
しない	-8.04089
別の	-8.04113
ず	-8.05233
ム	-8.05437
テキスト	-8.05524
なかった	-8.05674
作品	-8.05901
子供	-8.05917
理由	-8.05924
ことをお勧めします	-8.06051
ページ	-8.06248
のある	-8.06696
事	-8.0712
接続	-8.07186
ナ	-8.07395
のみ	-8.08365
メ	-8.08741
スト	-8.08908
フ	-8.09171
効果	-8.09349
キ	-8.09372
熱	-8.09785
を持っている	-8.09824
彼らが	-8.09849
ット	-8.10084
させ	-8.10274
を使って	-8.10501
だけ	-8.10616
になります	-8.10947
フォ	-8.1116
ネットワーク	-8.11341
部	-8.11456
女性	-8.11576
いる	-8.11677
形	-8.11948
車	-8.12167
解	-8.12216
年	-8.12299
皮膚	-8.12332
愛	-8.12732
つ	-8.13019
ないように	-8.13106
画像	-8.13119
簡単に	-8.13137
将来の	-8.13145
▁その	-8.13268
っている	-8.13506
ありません	-8.13601
完全に	-8.13632
見	-8.13745
インストール	-8.13975
▁私たちは	-8.14001
頭	-8.14026
各	-8.14061
があり	-8.14119
参加	-8.1482
リング	-8.14821
しました	-8.1489
リー	-8.15049
かもしれません	-8.15409
次の	-8.15417
状態	-8.15436
エネルギー	-8.15513
バー	-8.15623
なしで	-8.15861
操作	-8.15918
にある	-8.1684
最初に	-8.17144
は非常に	-8.17343
映画	-8.17531
なら	-8.17602
生	-8.17843
魚	-8.17967
という事実	-8.18143
ではない	-8.18376
▁あなたの	-8.18392
プロセスは	-8.18748
の上に	-8.18791
塩	-8.18799
に対する	-8.18803
保護	-8.19408
様々な	-8.20059
調査	-8.20061
カーペット	-8.20066
たり	-8.20077
国	-8.20122
世界	-8.20226
定	-8.20362
脂肪	-8.20483
最初の	-8.20535
無	-8.20867
重要な	-8.20897
による	-8.21277
植物	-8.21321
長い	-8.21394
合	-8.21815
点	-8.22092
変更	-8.22251
ック	-8.22418
それから	-8.22657
あ	-8.22684
足	-8.23017
まだ	-8.23134
のか	-8.23233
のように	-8.23351
高	-8.23375
の助けを借りて	-8.23488
グ	-8.23548
人は	-8.23599
ですが	-8.23776
乾燥	-8.23783
さらに	-8.23899
すでに	-8.24169
あなたに	-8.2418
それらの	-8.24294
壁	-8.24734
線	-8.24766
前	-8.24871
部屋	-8.25027
コンテンツ	-8.25266
光	-8.25674
女の子	-8.25981
人が	-8.25992
を持っています	-8.26179
比較	-8.26983
数回	-8.27119
すると	-8.27201
テーブル	-8.27473
クリーム	-8.2752
携帯電話	-8.27546
空気	-8.27555
木	-8.27782
正しい	-8.2799
サイズ	-8.28289
かなり	-8.28389
その他の	-8.28433
層	-8.28434
することができる	-8.28541
テンプレート	-8.28628
を作成する	-8.28658
石	-8.28864
接着剤	-8.28903
ビ	-8.29086
指	-8.29149
自分の	-8.29206
を通して	-8.29367
ており	-8.29428
になるでしょう	-8.29429
お金	-8.29438
回	-8.29474
花	-8.29823
表面	-8.29904
に関する	-8.30059
でした	-8.30305
上で	-8.30468
はありません	-8.30477
ね	-8.30745
特徴	-8.30999
購入	-8.31016
などの	-8.31509
を与える	-8.31532
と一緒に	-8.31725
テ	-8.31811
健康	-8.3185
装置	-8.32037
成長	-8.32131
▁私は	-8.32182
彼が	-8.32267
面	-8.32368
メール	-8.32658
活動	-8.32666
っ	-8.32769
スタイル	-8.32799
することもできます	-8.33191
わず	-8.33508
関係	-8.33509
たい	-8.33641
高い	-8.33751
紙	-8.33947
存在	-8.33974
▁この場合	-8.34032
られ	-8.34375
ター	-8.34545
量	-8.34586
動物	-8.34654
実行	-8.34794
自体	-8.34913
内	-8.34953
正	-8.35008
贈り物	-8.35088
ケーブル	-8.35089
もっと	-8.35107
小	-8.35525
引き	-8.35577
コーティング	-8.35585
外	-8.35774
男性	-8.35815
皿	-8.36075
パターン	-8.36576
べきです	-8.36718
子供の	-8.36734
記事	-8.36994
経験	-8.37043
▁彼らは	-8.3707
を選択する	-8.37287
油	-8.37522
ゴール	-8.37582
の長さ	-8.37648
設計	-8.38061
いた	-8.38079
▁ユーザー	-8.38285
彼	-8.38595
どの	-8.38619
するための	-8.38772
理解	-8.39025
組織	-8.39099
オ	-8.39099
それらは	-8.39546
規則	-8.39611
研究	-8.39611
ガラス	-8.39611
カット	-8.39669
のですが	-8.39976
学	-8.3999
ウイルス	-8.40121
骨	-8.40126
しっかり	-8.40351
なければなりません	-8.40497
古い	-8.40657
強い	-8.40712
参加者	-8.40754
器	-8.40856
全	-8.40866
変化	-8.4094
何か	-8.4095
により	-8.41042
ニ	-8.41104
追加の	-8.41322
大変	-8.41463
ズ	-8.41609
全体	-8.41633
値	-8.41685
が高く	-8.41788
上に	-8.41888
ような	-8.41971
ユーザー	-8.42033
意	-8.4211
イン	-8.42358
だけで	-8.42579
当	-8.43196
む	-8.43239
方法で	-8.43245
海	-8.43251
計画	-8.43311
来	-8.43341
私の	-8.43425
なる	-8.43452
る人	-8.43534
する方法	-8.43647
位置	-8.43691
クリスマスツリー	-8.43812
アカウント	-8.43814
追加	-8.44165
ことによって	-8.44331
アパート	-8.44342
パートナー	-8.44349
ん	-8.44532
ないでください	-8.44652
時	-8.44825
広告	-8.44892
直	-8.44998
名	-8.45231
条件	-8.45429
企業	-8.45432
において	-8.45436
立	-8.4572
なく	-8.45964
アルコール	-8.45979
入	-8.4628
日本	-8.46394
風	-8.46411
注意	-8.46479
提供	-8.46598
家や	-8.46687
重	-8.46731
ためには	-8.46908
自然	-8.46952
道	-8.47068
症状	-8.47087
機会	-8.47092
色合い	-8.47095
を見つける	-8.47171
専門家	-8.47386
必要があり	-8.476
痛み	-8.47646
説明	-8.47683
サ	-8.47935
ティ	-8.48064
ば	-8.48114
布	-8.48129
放送	-8.48201
動	-8.48327
アンケート	-8.48759
通常の	-8.48801
ことで	-8.48824
そう	-8.48952
方法は	-8.48969
意味	-8.49279
タスク	-8.49292
カスタム	-8.49321
の使用	-8.49358
の成功	-8.49383
ディ	-8.49674
会社	-8.49898
パ	-8.49923
エンジン	-8.50448
ノード	-8.50472
同時に	-8.50492
する必要がある	-8.50596
当社が	-8.50623
構造	-8.51038
損傷	-8.51038
質に	-8.51053
香り	-8.51053
質問	-8.51126
にとっても	-8.51274
ダ	-8.51328
主な	-8.51362
今	-8.51404
削除	-8.51495
ボ	-8.51565
病気	-8.51632
を選ぶ	-8.51895
ことはできません	-8.51932
を見	-8.5197
のような	-8.52128
作	-8.52189
忘れて	-8.52309
目的	-8.52575
彼ら	-8.52671
モ	-8.52711
つかみ	-8.52794
▁当社の	-8.52829
談を	-8.53053
▁その後	-8.53177
お使い	-8.53182
人生	-8.5331
髪	-8.53353
根	-8.53363
パラメータ	-8.53408
いて	-8.53439
ための最高の	-8.53463
地域	-8.53526
よう	-8.53673
固定	-8.53711
なります	-8.5388
ソフトウェア	-8.5396
価格	-8.53962
することができ	-8.54188
テンプレートを	-8.54273
調理	-8.54337
場	-8.54452
ネ	-8.54471
を使えば	-8.54556
首	-8.54556
の紹介	-8.5459
コンタクトを	-8.5471
くことも	-8.54857
▁アイ	-8.54993
リンク	-8.55142
可能性の高い	-8.55155
汚れ	-8.55215
店	-8.55226
所有者	-8.55281
結果から	-8.55335
流	-8.55356
開発	-8.55356
が遅い	-8.55364
チャットし	-8.55486
白	-8.55557
分	-8.55588
金	-8.55598
を取り除く	-8.556
驚いてい	-8.55756
好みに合わせて	-8.55757
手段	-8.55771
処理	-8.55973
ング	-8.56137
空	-8.56272
鮮明で	-8.56361
おいしい	-8.56363
たい方は	-8.56363
への答え	-8.56364
でも使える	-8.56365
新製品	-8.56401
長い間	-8.56426
顧客へ	-8.56432
手順	-8.56441
あなたの商品	-8.56482
▁クリック	-8.56488
影響	-8.56545
達成でき	-8.56626
▁分析	-8.56675
困難	-8.56837
ほど	-8.56841
ーンや	-8.56901
ウィンドウ	-8.56973
から選んでいただ	-8.56973
面倒な	-8.56973
売りたい	-8.56975
や個人の	-8.56985
どんなビジネス	-8.57002
を読むことができます	-8.57016
まとめることができ	-8.57428
りましょう	-8.57444
を購入する	-8.57476
況を	-8.57577
にも関わらず	-8.57584
チェコ共和国では	-8.57585
に取り掛か	-8.57586
アンドロイド	-8.57586
と好奇心が強い	-8.57587
らわし	-8.57587
真剣に考えてい	-8.57587
▁数千	-8.57588
を分ける	-8.57588
▁インパクト	-8.57588
ソフトウェアのインストール	-8.57588
▁すべての人々の	-8.57599
伝えたり	-8.57605
もきっと	-8.57606
テンプレートを使って	-8.57629
ご自分の	-8.57634
イベントについて	-8.57668
する人にとっても	-8.5771
れた	-8.57721
が全くな	-8.57783
に優しい	-8.57837
と変換	-8.57888
これ	-8.57943
▁料金	-8.57961
を開く方	-8.58037
られた	-8.58098
び	-8.58123
家族に近	-8.582
無料のアプリ	-8.58204
リードを	-8.58488
その後	-8.58498
ことがあります	-8.58515
機器	-8.5855
中の	-8.58562
可能性があります	-8.58627
イベント	-8.58742
カード	-8.58805
本当に	-8.58825
▁販売	-8.58839
されていない	-8.58895
子供たち	-8.58985
デ	-8.59353
書	-8.59383
ロー	-8.595
質	-8.59545
法	-8.5971
症	-8.60044
文書	-8.60089
助け	-8.60491
げ	-8.60553
床	-8.60711
任意の	-8.60712
ボール	-8.60724
管理	-8.60779
▁たとえば	-8.6099
を与え	-8.61079
しばしば	-8.6109
自宅で	-8.61166
の携帯電話を使	-8.61348
テスト	-8.6139
自分自身	-8.61392
の間に	-8.61412
単に	-8.61474
における	-8.61483
プロジェクト	-8.61989
ベース	-8.62033
適用	-8.62149
ポイント	-8.62635
ほとんど	-8.6288
付け	-8.63055
セ	-8.63078
音	-8.63236
能力	-8.63297
ライ	-8.63377
アクセス	-8.63441
ブロック	-8.6373
価値があります	-8.63778
非	-8.63896
低	-8.63921
アイデア	-8.63938
品	-8.64145
口	-8.64347
明	-8.64529
画面	-8.64608
んだ	-8.64701
プロ	-8.64706
ート	-8.64755
試	-8.64836
▁会議	-8.65074
ダウンロード	-8.65175
毛	-8.65243
を含む	-8.65258
チョコレート	-8.65258
結局のところ	-8.65258
塗料	-8.65261
パー	-8.65797
あなた	-8.65919
確認	-8.66002
すべてが	-8.66094
ていない	-8.66127
の形で	-8.6624
かどうか	-8.66287
必要	-8.66289
こ	-8.66326
もあります	-8.66369
名前	-8.66463
同	-8.66534
切	-8.66568
例	-8.66571
ダイヤモンド	-8.66595
努力	-8.66596
販売	-8.66859
彼女の	-8.6686
言葉	-8.66886
ポ	-8.66931
▁それから	-8.67029
に基づいて	-8.67134
商品	-8.67143
メイン	-8.67311
必要はありません	-8.67331
急	-8.6758
を取り	-8.67695
メニュー	-8.67952
ラップトップ	-8.67954
成分	-8.67961
であること	-8.684
コン	-8.68458
▁それが	-8.68535
一般的な	-8.68599
カー	-8.68758
着	-8.68784
どのように	-8.68934
筋肉	-8.69031
についての	-8.69044
したり	-8.69129
を作り	-8.69217
える	-8.69311
の中に	-8.69339
彼女	-8.69621
食	-8.69877
残	-8.69887
語	-8.69889
詳細	-8.7
喜び	-8.70024
食品	-8.70038
完全な	-8.70077
ループ	-8.70098
生活	-8.70099
▁もちろん	-8.70593
コード	-8.70715
っています	-8.70734
せ	-8.70812
の下で	-8.70901
レベル	-8.71
の一部	-8.71204
肌	-8.71424
を描く	-8.71424
簡単な	-8.71427
側面	-8.71439
を有する	-8.71467
後に	-8.71887
製	-8.71996
あらゆる	-8.72094
天井	-8.72131
穴	-8.72133
明るい	-8.72134
の両方	-8.7231
を提供する	-8.72334
あります	-8.72836
がない	-8.7293
が必要です	-8.73148
られる	-8.73172
を受け	-8.73233
▁これ	-8.73373
断	-8.73498
興味深い	-8.73567
液体	-8.73598
のすべての	-8.73749
更新	-8.73847
でさえ	-8.73924
ものです	-8.7405
まり	-8.74223
はるかに	-8.74256
野菜	-8.74291
金属	-8.743
サポート	-8.743
より多くの	-8.74366
キー	-8.74476
セット	-8.74529
ない場合は	-8.74587
ここで	-8.74655
上げ	-8.747
ピ	-8.74706
感情	-8.74922
素	-8.74979
スキル	-8.75022
バージョン	-8.75026
セックス	-8.75027
洗浄	-8.75127
瞬間	-8.75186
医師	-8.7535
内部	-8.75467
剤	-8.75721
アイテム	-8.75757
に対して	-8.758
人の	-8.75819
変	-8.75949
種	-8.75998
レー	-8.76043
会	-8.76359
集	-8.76426
先	-8.76475
ディスク	-8.76495
スカーフ	-8.76498
火	-8.76498
領域	-8.76498
ガス	-8.76638
最後に	-8.76645
▁すべての	-8.76952
ことに	-8.76964
リン	-8.76973
唯一の	-8.77244
フラッシュドライブ	-8.77247
食事	-8.77271
れば	-8.77637
通	-8.77789
ち	-8.77817
取	-8.77841
あなた自身の手で	-8.77844
頻繁に	-8.77914
検索	-8.77916
利用	-8.77929
コミュニケーション	-8.77943
親	-8.77954
プラスチック	-8.77995
優れた	-8.78006
わずかに	-8.7833
がある場合は	-8.78357
果物	-8.78478
を得る	-8.78487
決定	-8.78536
を実行する	-8.78566
ことなく	-8.78595
付	-8.78612
出す	-8.78659
害	-8.78729
パネル	-8.78748
山	-8.78753
動き	-8.79027
ール	-8.79041
話	-8.79119
特	-8.79242
電	-8.79343
ことが重要です	-8.7938
作成	-8.7939
じ	-8.79395
た後	-8.79472
▁これを行うには	-8.79517
銀行	-8.79529
新年の	-8.79686
を使う	-8.79738
色の	-8.79795
マーケティング	-8.80261
始める	-8.80271
美しさ	-8.80286
オンライン	-8.80289
選択肢	-8.80294
コピー	-8.80298
しい	-8.80473
品質	-8.80483
るように	-8.80516
しないでください	-8.80704
型	-8.80944
登録	-8.81061
社会	-8.81071
示	-8.81136
ながら	-8.81255
有	-8.81376
使い	-8.8165
切断	-8.81659
価値	-8.81709
望	-8.81731
マスター	-8.81785
に応じて	-8.81808
ヒント	-8.81843
文化	-8.81878
なければならない	-8.81969
直接	-8.82225
ことを忘れないでください	-8.82251
思	-8.82268
隠	-8.82664
シート	-8.82723
それに	-8.83002
回転	-8.83032
パン	-8.83075
ボタン	-8.83083
と同じ	-8.83304
タイプの	-8.8337
コーヒー	-8.83421
年齢	-8.83423
工芸品	-8.83424
解決策	-8.83427
々	-8.83544
ペ	-8.83732
平	-8.84111
可能性	-8.84118
可能な	-8.84178
▁同時に	-8.84198
抗	-8.84219
▁今	-8.84273
ことを意味します	-8.84274
していない	-8.84332
物質	-8.84398
関連	-8.84399
多く	-8.84421
交換	-8.84549
われ	-8.84633
に従って	-8.84697
るために	-8.84941
方法を	-8.84974
所	-8.84975
和	-8.85001
員	-8.85029
フォーム	-8.85039
電源	-8.85039
チーズ	-8.85043
利点	-8.85044
赤ちゃん	-8.85063
した後	-8.85137
部品	-8.85435
反応	-8.85486
をもたらす	-8.85536
環境	-8.85844
カラー	-8.85912
複雑な	-8.85934
ことができない	-8.85946
正確に	-8.85952
送	-8.86132
夢	-8.86209
機	-8.86423
だけです	-8.86509
新	-8.86535
どんな	-8.86622
アップ	-8.86641
最後の	-8.86665
電気	-8.86713
コスト	-8.86747
配置	-8.86781
私たちが	-8.86803
生産	-8.8682
製造	-8.86932
に加えて	-8.8703
を準備する	-8.87038
制限	-8.87135
サー	-8.87143
単純な	-8.87529
ガ	-8.87646
悪い	-8.87651
速度	-8.87706
時に	-8.87764
段階	-8.87787
最	-8.87903
に入る	-8.87973
シェアして	-8.8821
できるだけ	-8.88256
にもかかわらず	-8.88294
葉	-8.88315
メッセージ	-8.88322
閉じ	-8.88326
権利	-8.88327
男	-8.88361
新鮮な	-8.88368
取り外し	-8.8855
対	-8.88696
▁私たちの	-8.88725
服	-8.88766
言う	-8.88902
複雑	-8.88934
どのような	-8.89106
皮	-8.89145
窓	-8.89162
注文	-8.89165
を追加する	-8.89184
る必要があります	-8.89224
期間	-8.8929
いくつか	-8.89418
使用される	-8.89685
んで	-8.89695
ソース	-8.89953
例えば	-8.89967
でき	-8.89989
メディア	-8.90007
クライアント	-8.9001
ブラウザ	-8.9001
食べ物	-8.90055
表現	-8.90057
リソース	-8.90068
するように	-8.90621
使用する	-8.90635
赤	-8.90665
発生	-8.90779
猫	-8.90822
傷	-8.9085
オーブン	-8.90865
音楽	-8.90875
ノ	-8.90904
外部	-8.90917
薬物	-8.91053
ケーキ	-8.91091
家族	-8.91186
▁それ	-8.91355
▁今日	-8.91493
理	-8.91691
を適用する	-8.91693
返	-8.91717
ステップ	-8.91727
おそらく	-8.91743
されました	-8.91748
成功	-8.9179
の後	-8.91855
たくさんの	-8.91898
便利な	-8.91985
慎重に	-8.92145
切り	-8.92178
コース	-8.92199
を理解する	-8.9232
式	-8.92519
売	-8.92595
暖かい	-8.92597
楽しい	-8.92606
温度	-8.92618
まったく	-8.92652
再	-8.92667
完成した	-8.92699
を取る	-8.92813
チェック	-8.92988
減少	-8.93102
興味	-8.93204
除去	-8.93407
二	-8.93451
レモン	-8.93474
セクション	-8.93474
深刻な	-8.93474
電話	-8.93476
障害	-8.93477
プレート	-8.93486
の中の	-8.9365
アン	-8.93679
通常	-8.93869
ション	-8.93904
外観	-8.9431
責任	-8.94358
雪	-8.94359
テレビ	-8.9436
ことも	-8.94407
行われ	-8.94438
多	-8.94505
女性は	-8.94638
刺激	-8.94799
ただ	-8.94807
ているので	-8.94849
容	-8.95152
評価	-8.95228
小さい	-8.95252
天然	-8.95253
保存	-8.95287
混合物	-8.95311
もちろん	-8.95413
移動	-8.95739
強く	-8.95781
にあります	-8.95868
の場合	-8.96029
構成	-8.96088
フレーム	-8.96145
彼女は	-8.96151
のおかげで	-8.96152
ナイフ	-8.96153
学校	-8.96157
加熱	-8.96163
十分な	-8.96231
が非常に	-8.96576
身	-8.96746
ツ	-8.9696
血	-8.9697
お祝い	-8.96994
適	-8.96999
タンパク質	-8.97061
少なくとも	-8.97062
使用されます	-8.971
薄い	-8.97123
指示	-8.97152
上部	-8.97171
記	-8.97479
ハ	-8.97553
調整	-8.97559
クラス	-8.97594
十分に	-8.97618
解決	-8.97634
▁次に	-8.97701
そうでなければ	-8.97702
ときは	-8.97748
洗	-8.97916
正しく	-8.97945
感染	-8.97971
範囲	-8.97979
柔らかい	-8.97979
中央	-8.97979
爪	-8.97979
ものと	-8.97982
間違いなく	-8.97991
ないこと	-8.98039
何も	-8.9852
離	-8.98593
顔	-8.9863
たくさん	-8.98722
▁いくつかの	-8.98847
アプローチ	-8.98905
ケース	-8.98973
べき	-8.99051
端	-8.99056
主	-8.99221
簡単です	-8.99249
することは	-8.99346
した場合	-8.99522
はあなたの	-8.9969
過	-8.99755
移	-8.99815
インテリア	-8.9984
人々は	-8.99844
素材	-8.99846
▁これにより	-8.99871
を引き起こす	-8.99905
白い	-9.00126
ライン	-9.00239
友人	-9.00293
でさえも	-9.00335
制	-9.00358
なり	-9.00534
応	-9.00752
連	-9.0076
死	-9.00782
自分で	-9.00787
目標	-9.00795
エラー	-9.00818
原則として	-9.00852
あなたはあなたの	-9.01014
できない	-9.01426
としても	-9.01479
自	-9.01544
を排除する	-9.01557
イメージ	-9.01574
とても	-9.01642
マニキュア	-9.01735
毎日	-9.01743
ロード	-9.0183
内に	-9.02015
たら	-9.02206
時には	-9.02252
ベ	-9.02268
要求	-9.02371
▁ほとんどの場合	-9.02421
ります	-9.02422
を行う	-9.02456
ラン	-9.02461
黒	-9.02496
あなた自身の	-9.02531
絵	-9.02688
歴史	-9.02696
系	-9.02696
脳	-9.02697
スレッド	-9.02697
に沿って	-9.02697
古典的な	-9.02707
スペース	-9.02719
分析	-9.02725
若い	-9.02732
組み合わせ	-9.02831
デジタル	-9.02889
ラー	-9.02913
いい	-9.03296
可能性がある	-9.03453
自動	-9.03509
混合	-9.03615
様	-9.03629
文字	-9.03652
ほとんどの	-9.03656
ゾーン	-9.03668
フィルム	-9.03668
普通の	-9.03668
美しく	-9.03668
時代	-9.03684
になり	-9.0377
▁そのため	-9.04065
の選択	-9.04155
しません	-9.04329
は常に	-9.04335
マン	-9.04413
結	-9.04586
米	-9.04595
子供が	-9.0464
ジュース	-9.04648
トピック	-9.04648
送信	-9.04658
ストリップ	-9.04662
ブラシ	-9.0467
スパイス	-9.0469
一般的に	-9.0471
あなた自身	-9.0474
表示	-9.04823
▁彼は	-9.04852
取り付け	-9.04886
近く	-9.04986
をする	-9.05123
そ	-9.05251
女性の	-9.05347
接着	-9.0548
た場合	-9.05555
取り	-9.05624
最適な	-9.05638
印刷	-9.05638
独自の	-9.05639
スライス	-9.05639
同様の	-9.0564
半分	-9.05657
ティング	-9.05663
時々	-9.05665
数字	-9.05667
グループ	-9.05678
主に	-9.0603
彼に	-9.06171
されており	-9.06232
の原因	-9.06389
ということです	-9.06489
他の人	-9.06526
がない場合は	-9.06559
はあなたが	-9.06601
針	-9.06638
知識	-9.0664
に対処する	-9.06667
を調理する	-9.06706
の代わりに	-9.06802
自分	-9.06858
現代の	-9.06869
表	-9.07024
ないでしょう	-9.07031
の種類	-9.07036
を完全に	-9.07055
を除去する	-9.07287
戦	-9.07443
したい	-9.07542
現実	-9.07575
円	-9.07599
半	-9.07629
栄養	-9.07633
するか	-9.07641
夫	-9.07648
投資	-9.07648
段ボール	-9.07654
によると	-9.07753
であろう	-9.07815
便利	-9.07954
低い	-9.0796
悪	-9.0837
酸	-9.08418
それぞれの	-9.08546
れる	-9.08643
ベッド	-9.08668
冷却	-9.08669
細胞	-9.0867
はずです	-9.08686
ドライブ	-9.08699
スープ	-9.0871
ファン	-9.08717
特性	-9.08792
違い	-9.08909
トーン	-9.09198
こともできます	-9.09211
資金	-9.097
レイアウト	-9.09702
込む	-9.09711
マー	-9.09742
者が	-9.09895
原因	-9.09957
の存在	-9.09991
置	-9.10077
好きな	-9.10256
難しい	-9.10357
続け	-9.10438
長く	-9.1044
製品の	-9.10452
伝え	-9.10623
しないように	-9.10628
場所に	-9.1068
長	-9.10704
角	-9.10705
曲	-9.10729
描画	-9.10741
リスク	-9.10793
電力	-9.10801
ユニークな	-9.10803
元	-9.10842
システムの	-9.10914
快適な	-9.10954
かつ	-9.11054
を使用すると	-9.11085
認識	-9.11231
バン	-9.11294
ことはありません	-9.11308
の準備	-9.11382
の上の	-9.11415
コンピュータの	-9.11479
安全	-9.11592
十分	-9.11597
フィ	-9.11612
引	-9.11658
期	-9.11694
フェ	-9.11749
ウェブサイト	-9.11765
人生の	-9.11788
基礎	-9.11794
糸	-9.11794
おもちゃ	-9.11794
フォーマット	-9.11794
メモリ	-9.11812
オン	-9.11871
気分	-9.11877
を決定する	-9.11895
テープ	-9.11963
大きく	-9.1226
ないので	-9.12356
制御	-9.12384
ナー	-9.12527
有効	-9.1276
ファ	-9.12783
を備えた	-9.12858
チップ	-9.12858
コンポーネント	-9.12858
初心者	-9.12858
診断	-9.12859
クリック	-9.12867
満足	-9.12873
プロファイル	-9.12918
ドレス	-9.12962
を見つけ	-9.1298
自然な	-9.13108
チーム	-9.13153
近	-9.13259
使用されています	-9.13288
ていません	-9.13336
たち	-9.13409
の問題	-9.13453
きます	-9.13504
を知る	-9.13639
乗	-9.13736
次	-9.13755
使用され	-9.13812
については	-9.13902
右	-9.13923
率	-9.1393
アメリカ	-9.13932
喫煙	-9.13933
鼻	-9.13933
自家製	-9.13933
製造業者	-9.1394
冷たい	-9.13943
押し	-9.14062
によって異なります	-9.14062
の状態	-9.14142
このような	-9.14148
を与えます	-9.14251
よ	-9.14514
室	-9.14579
まれ	-9.14598
を取り除き	-9.14677
ユーザーは	-9.14727
弱	-9.14818
製品を	-9.14904
視	-9.14933
ヒ	-9.15004
止	-9.15007
チキン	-9.15008
スポーツ	-9.1502
アドバイス	-9.1502
ホルモン	-9.1502
の欠如	-9.1502
エッジ	-9.1502
スマートフォン	-9.1502
を示す	-9.1503
マスタークラス	-9.15038
意見	-9.1508
私が	-9.15127
となる	-9.15219
ものを	-9.15309
独立して	-9.1549
部屋の	-9.15628
方向	-9.15745
に行く	-9.15783
調	-9.15986
社	-9.16064
収	-9.16066
の表面	-9.16089
精	-9.16111
トレーニング	-9.16119
オブジェクト	-9.16119
の数	-9.1612
高品質の	-9.16144
キング	-9.16166
タンク	-9.16183
前の	-9.16454
底	-9.16634
ことを可能にする	-9.16644
危険	-9.16693
動作	-9.16801
することをお勧めします	-9.16832
ワ	-9.16892
ましょう	-9.1697
を作る方法	-9.17213
ヘッド	-9.1723
箱	-9.1723
個々の	-9.17231
砂糖	-9.17232
ホーム	-9.17234
▁多くの場合	-9.17307
するには	-9.17324
内で	-9.17432
事前に	-9.17498
医者	-9.17545
開始	-9.17686
へ	-9.17772
▁それで	-9.17808
することはできません	-9.17844
をより	-9.17845
だった	-9.18018
快適	-9.18032
個人	-9.18143
原	-9.1824
民	-9.18267
ソ	-9.18307
真	-9.18311
望ましい	-9.18313
設置	-9.18327
ぎ	-9.18334
列	-9.18342
ていた	-9.1835
サラダ	-9.18353
欲求	-9.18354
患者は	-9.18354
肝臓	-9.18355
を介して	-9.18355
言語	-9.18366
好み	-9.18459
夜	-9.18749
ユーザーが	-9.18798
モード	-9.18962
▁各	-9.19058
多数の	-9.19187
それほど	-9.1919
ジャ	-9.19254
が必要	-9.19294
ゴ	-9.19344
信	-9.19372
側	-9.19373
文	-9.19377
番号	-9.19477
備	-9.19478
回復	-9.19478
負	-9.19485
卵	-9.1949
リラックス	-9.1949
とともに	-9.19494
▁だから	-9.19496
なぜ	-9.19496
単語	-9.19499
ゲスト	-9.19512
あり	-9.19515
の外観	-9.19575
▁しかしながら	-9.19685
ても	-9.19909
するでしょう	-9.19981
▁このような	-9.20051
のであれば	-9.20072
おり	-9.20163
書き	-9.20325
の下に	-9.20365
青	-9.20437
ケ	-9.2049
を持って	-9.20497
ホ	-9.20557
提案	-9.20566
することです	-9.20575
キャ	-9.20596
キャベツ	-9.2064
フルーツ	-9.2064
珍しい	-9.20642
やすい	-9.20647
費用	-9.20649
飲み物	-9.2068
を使用すること	-9.20694
再び	-9.20702
スター	-9.20764
良く	-9.20917
冬の	-9.20985
車の	-9.21005
家の	-9.21068
づ	-9.21301
人気	-9.21317
現れ	-9.21324
ていました	-9.21351
定期的に	-9.21556
体の	-9.21591
靴	-9.21748
ッシュ	-9.21755
徐々に	-9.21802
玉ねぎ	-9.21802
血液	-9.21808
牛乳	-9.21808
▁ただし	-9.21816
アクセサリー	-9.21817
の間の	-9.21867
を伴う	-9.21872
マーク	-9.21879
は通常	-9.21932
を提供します	-9.22266
ことを可能にします	-9.22281
▁ここでは	-9.22377
より良い	-9.22425
入力	-9.22467
選択された	-9.22507
であるので	-9.22524
することで	-9.2264
守	-9.22647
ドライバ	-9.22901
圧	-9.22902
人々が	-9.22922
保証	-9.22925
独	-9.22954
炎	-9.22958
母	-9.2296
要因	-9.22978
モジュール	-9.22978
攻撃	-9.22979
ビタミン	-9.22979
ソーセージ	-9.22979
修理	-9.22981
運動	-9.22983
市場	-9.22988
形状	-9.23
休日	-9.23006
を正しく	-9.23024
黄色	-9.23046
しており	-9.23232
ませんでした	-9.23296
中国	-9.23387
効果的な	-9.23421
ものに	-9.23422
許可	-9.23428
見え	-9.23478
保	-9.23494
あなたを	-9.23503
かれ	-9.23515
そこで	-9.23533
の主な	-9.23588
修正	-9.23626
テン	-9.23632
際	-9.23754
▁多くの	-9.23826
食べ	-9.23982
工	-9.24026
発展	-9.24031
場合には	-9.24083
ボード	-9.24153
使	-9.24167
繰り返し	-9.24169
欠陥	-9.24171
少ない	-9.24175
毛皮	-9.24193
適しています	-9.24196
ペット	-9.24197
面白い	-9.242
なしに	-9.24235
学生	-9.2424
不快な	-9.24256
付けられ	-9.24312
読者	-9.24323
現	-9.24369
ることができる	-9.24438
キス	-9.24448
製品は	-9.24546
魅力	-9.24594
お客様	-9.24733
清掃	-9.2477
行われます	-9.24789
私	-9.24817
重要です	-9.24838
最高の	-9.24842
消費	-9.24859
を作ります	-9.25016
かった	-9.25226
相	-9.25278
温	-9.25309
ヤ	-9.25312
るでしょう	-9.2533
声	-9.25338
組	-9.25359
すなわち	-9.25374
ほこり	-9.25374
石鹸	-9.25374
泡	-9.25374
を買う	-9.2538
の下の	-9.25397
コメント	-9.25399
▁最初の	-9.25465
実際には	-9.25505
カバー	-9.2555
誰もが	-9.25559
期待	-9.25564
一人	-9.25598
いつも	-9.25652
の前に	-9.25795
それらが	-9.25975
の名前	-9.26026
作られた	-9.2606
家で	-9.26242
生き	-9.26268
図	-9.26512
自分自身を	-9.2652
吸	-9.26525
優	-9.26537
完了	-9.26549
刻	-9.2657
美	-9.26576
模	-9.26581
負荷	-9.26584
事業	-9.2659
モバイル	-9.26593
鍋	-9.26594
項目	-9.26601
役立ちます	-9.26604
全ての	-9.26628
通知	-9.26647
のに役立つ	-9.26659
するとき	-9.26709
対応	-9.26771
を見て	-9.2703
リア	-9.27299
大人	-9.27305
柔らかく	-9.27372
の製造	-9.27526
以下の	-9.27641
別	-9.27643
観	-9.27769
初めて	-9.27828
旅行	-9.27844
必要に応じて	-9.27882
することが	-9.27883
基本的な	-9.27898
互いに	-9.27899
アドレス	-9.27903
生地	-9.27928
それぞれ	-9.27947
に適しています	-9.28251
日本の	-9.2827
とその	-9.28272
情報を	-9.28525
を持ち	-9.28627
ど	-9.2871
受信	-9.28721
公	-9.28823
細	-9.28836
緑	-9.28851
配	-9.28908
計算	-9.28924
標準	-9.28979
最大の	-9.29033
の影響	-9.29037
絶	-9.29058
在	-9.29058
パスワード	-9.29062
汚染	-9.29063
権	-9.29067
板	-9.2907
パフォーマンス	-9.29078
オペレーティングシステム	-9.29078
雰囲気	-9.29078
すぎる	-9.29079
パイプ	-9.29113
を作ることができます	-9.29167
セル	-9.29262
そこに	-9.29429
はしばしば	-9.2959
可能	-9.29689
ガー	-9.29701
を飾る	-9.29948
ようにしてください	-9.29989
らない	-9.30012
共有	-9.30063
料	-9.30209
を学び	-9.30258
続	-9.30265
家に	-9.30335
ピン	-9.30336
天	-9.30341
ギ	-9.30343
契約	-9.30343
リボン	-9.30343
バランス	-9.30344
余分な	-9.30344
キャンバス	-9.30344
塗装	-9.30344
正確な	-9.30344
図面	-9.30369
どう	-9.30376
いました	-9.30506
と思います	-9.30573
今日	-9.30814
ほとんどの場合	-9.30906
ロール	-9.30946
タイム	-9.31053
しっかりと	-9.31118
が好き	-9.31125
なった	-9.31144
てきた	-9.31229
ライト	-9.31275
最大	-9.3136
私たち	-9.31362
紙の	-9.31417
代	-9.31576
のを助ける	-9.31589
等	-9.31609
の間で	-9.31614
必ず	-9.31625
スポット	-9.31626
カロリー	-9.31626
信号	-9.31628
禁止	-9.31629
頼	-9.31638
内側	-9.31676
のに十分です	-9.31778
のが良いです	-9.31858
フル	-9.3188
元の	-9.32188
次に	-9.32539
なっています	-9.32574
残りの	-9.32617
ところ	-9.32627
が表示されます	-9.32666
をお	-9.32913
容易に	-9.32918
ニュアンス	-9.32924
太陽	-9.32925
ファッション	-9.32925
カーディガン	-9.32925
ワニス	-9.32925
鳥	-9.32925
利益	-9.32925
恐れ	-9.32927
明るく	-9.32928
結論	-9.32932
調製	-9.32944
バッテリー	-9.32959
を達成する	-9.33151
はかなり	-9.33367
はそれほど	-9.33381
可能です	-9.33473
を防ぐ	-9.33478
みに	-9.33538
的で	-9.33562
シャ	-9.33751
プラ	-9.33784
とは異なり	-9.33786
レビュー	-9.3383
られている	-9.33861
の最初の	-9.3404
画	-9.34059
支払い	-9.34119
格	-9.34133
起こる	-9.34133
源	-9.34172
誕生日	-9.34181
苦	-9.34223
買	-9.34234
船	-9.3424
ボウル	-9.3424
尾	-9.3424
絶えず	-9.3424
スキーム	-9.3424
ファームウェア	-9.3424
ボリューム	-9.3424
蓄積	-9.34241
印象	-9.34241
充電	-9.34246
ボックス	-9.3425
経験豊富な	-9.34251
あるいは	-9.34267
ハンドル	-9.34281
ウール	-9.34302
▁それらは	-9.34328
べきである	-9.3434
タイ	-9.34355
タイプ	-9.34367
続ける	-9.34686
木の	-9.34786
はより	-9.34804
ものである	-9.34837
停止	-9.34909
されていません	-9.35096
を変更する	-9.3515
専門	-9.3517
入れ	-9.3549
土	-9.35535
いく	-9.35538
減	-9.35567
新たな	-9.35574
台所	-9.35584
気持ち	-9.35612
自動的に	-9.35718
てはいけません	-9.35803
の治療	-9.35941
かけ	-9.35941
を削除する	-9.35949
異	-9.35958
コー	-9.35979
に適用	-9.36087
ゆっくりと	-9.36199
なければなら	-9.36238
一緒に	-9.36241
を置く	-9.36257
詳細な	-9.36295
オリジナルの	-9.36343
ザ	-9.36357
座	-9.36515
仕事を	-9.36546
供給	-9.36596
られます	-9.36597
を取ります	-9.3667
カップ	-9.3683
他	-9.3687
スタ	-9.36879
を必要とする	-9.36886
想	-9.36902
自己	-9.36924
都市	-9.36924
撃	-9.36925
従来の	-9.36925
実験	-9.36925
クッキー	-9.36925
燃料	-9.36925
秘密	-9.36925
必ずしも	-9.36926
議論	-9.36928
に移動し	-9.36931
デバイスの	-9.36962
成	-9.36967
伝統的な	-9.37018
暗い	-9.37035
以上	-9.37054
利用可能な	-9.37081
通り	-9.37098
を得	-9.37108
られています	-9.37135
ダー	-9.37163
開	-9.37199
ではありませんが	-9.3724
を書く	-9.37311
ことができるので	-9.37384
さん	-9.37399
のリスト	-9.3741
を作成し	-9.37534
の品質	-9.37576
ということ	-9.376
ることができ	-9.37602
段階で	-9.37629
機械	-9.37898
上記の	-9.38018
であるため	-9.38027
存	-9.38078
実際に	-9.38082
オプションは	-9.38126
役立つ	-9.3822
ルータ	-9.38229
を提供し	-9.38248
転	-9.38251
ぶ	-9.38254
ロン	-9.38258
神	-9.38275
しか	-9.38279
パッケージ	-9.38295
労	-9.38295
距離	-9.38295
鉄	-9.38295
ならびに	-9.38296
突然	-9.38296
食事療法	-9.38308
茶色	-9.38349
読み	-9.3835
積	-9.38359
組成物	-9.3836
▁例えば	-9.38364
ケア	-9.38372
早く	-9.38372
戻	-9.38388
有用な	-9.38437
ずに	-9.38521
心配	-9.38545
に影響を与える	-9.38601
通過	-9.38633
▁まず	-9.38651
ランプ	-9.38814
ストレス	-9.38847
マス	-9.38908
あなたがあなたの	-9.39216
ていて	-9.39341
与えられ	-9.39348
を理解し	-9.39546
組成	-9.39629
母親	-9.39672
トップ	-9.39676
裂	-9.3968
絶対に	-9.39684
建設	-9.39687
神経	-9.39693
ブログ	-9.39708
する前に	-9.39716
質量	-9.39762
価値がある	-9.39821
ていますが	-9.39832
シェア	-9.39874
シンプルな	-9.39877
だろう	-9.4002
短	-9.40134
自由	-9.40335
を減らす	-9.40384
使用されている	-9.40482
それはあなたが	-9.40551
いません	-9.40742
現代	-9.40778
自身	-9.40894
初	-9.41011
帯	-9.41049
体重	-9.41082
プラットフォーム	-9.41092
サウンド	-9.41092
ニンジン	-9.41092
複数の	-9.41093
友達	-9.41094
粘土	-9.41095
上昇	-9.41103
通信	-9.41111
込み	-9.41117
合成	-9.41121
感染症	-9.41121
圧力	-9.41144
鋭い	-9.41196
個人的な	-9.41216
人工	-9.41224
でそれを	-9.41235
短い	-9.41295
はまだ	-9.41324
に行き	-9.41338
始めます	-9.41356
を感じ	-9.4136
タン	-9.41479
運転	-9.41674
分野	-9.41826
どこ	-9.41862
場所で	-9.41917
この場合	-9.41956
うまく	-9.42158
を維持する	-9.42182
明らかに	-9.42235
失	-9.42287
に注意を払う	-9.42379
伝統	-9.42425
浸	-9.42428
育	-9.42501
経	-9.42502
ことができるように	-9.42506
アレルギー	-9.42506
政	-9.42514
胃	-9.42521
輪郭	-9.42521
溶液	-9.42521
衣装	-9.42521
わけではありません	-9.42521
アクション	-9.42521
ロッド	-9.42521
急速に	-9.42522
仕上げ	-9.42534
指定された	-9.42719
シー	-9.42916
手で	-9.42979
を選択します	-9.42992
を追加し	-9.43078
しましょう	-9.43108
を慎重に	-9.43271
つく	-9.43377
ことができません	-9.4343
世界の	-9.43696
ろ	-9.43793
保持	-9.43867
言	-9.43879
精神	-9.43881
放	-9.43884
国の	-9.43896
監督	-9.43969
オフィス	-9.4397
唇	-9.4397
ソリューション	-9.4397
マッサージ	-9.4397
ナプキン	-9.4397
リベット	-9.4397
配偶者	-9.4397
かもしれない	-9.4397
本当の	-9.43978
モーター	-9.43987
広	-9.44029
そしてそれは	-9.44253
を簡単に	-9.44284
赤い	-9.44311
▁他の	-9.44317
を使うことができます	-9.44331
検討	-9.44341
形式	-9.44407
を増やす	-9.44432
パイ	-9.44485
▁通常	-9.44511
急いで	-9.44565
強さ	-9.44621
されるべきです	-9.44695
の端	-9.44836
を準備し	-9.44874
割り当て	-9.4495
を開く	-9.44953
するのが	-9.44981
のレベル	-9.45061
ひ	-9.45078
について話し	-9.4529
はまた	-9.4529
を得るために	-9.45302
教	-9.4534
ける	-9.45345
はほとんど	-9.45364
歯	-9.45429
反対	-9.45437
咳	-9.45437
我々は	-9.4544
フォルダ	-9.45442
撮影	-9.45443
類似	-9.45445
教育	-9.45448
場合にのみ	-9.45457
誰かが	-9.45548
順	-9.4556
話す	-9.45592
見せ	-9.45594
ねじ	-9.45711
ると	-9.45712
がより	-9.45714
と同様に	-9.45828
ラム	-9.45932
を残し	-9.4596
できるように	-9.46002
速く	-9.46024
創造	-9.46218
今回	-9.46323
中で	-9.46484
方法について	-9.46544
ちな	-9.46577
導	-9.46611
作用	-9.46614
されません	-9.46686
楽	-9.46766
ぐ	-9.46837
交	-9.46886
たいです	-9.46903
▁おそらく	-9.46906
左	-9.46923
差	-9.46925
尿	-9.46929
オイル	-9.46931
児	-9.46932
殺	-9.46933
キャラクター	-9.46933
練習	-9.46933
サワークリーム	-9.46934
夏	-9.46934
役割	-9.46935
意識	-9.46935
ソーシャルネットワーク	-9.46945
炎症	-9.46957
家具	-9.46958
限り	-9.4702
やすく	-9.47042
レット	-9.47043
を受け取る	-9.47073
を適用し	-9.47232
聞	-9.4724
黒い	-9.47246
▁この方法は	-9.47253
このように	-9.4738
重要	-9.47436
場合に	-9.47486
場合があります	-9.47564
トリ	-9.47568
信じ	-9.47727
るので	-9.47854
消え	-9.47889
がある場合	-9.47896
できません	-9.47936
の量	-9.4796
行われる	-9.48199
まず	-9.48246
内容	-9.48278
の組み合わせ	-9.48299
病	-9.484
告	-9.48434
軍	-9.48447
演習	-9.48448
フランス	-9.48448
セキュリティ	-9.48448
滑らかな	-9.48449
ユーティリティ	-9.48449
徹底的に	-9.48449
楽しみ	-9.48449
込まれ	-9.48453
と共に	-9.4847
トラック	-9.48502
試み	-9.48544
▁実際	-9.48571
必要性	-9.48659
を受ける	-9.4876
べきではありません	-9.48778
問題は	-9.49141
らず	-9.49205
の増加	-9.49242
当社	-9.49319
遅く	-9.49391
になっている	-9.49524
子供たちは	-9.49664
オー	-9.49702
やその他の	-9.49842
ゲ	-9.49856
全体の	-9.49893
横	-9.4991
命	-9.4995
与	-9.49954
鉛筆	-9.49986
フード	-9.49987
レッスン	-9.49987
ファンタジー	-9.49987
周囲	-9.49989
キャリア	-9.5
いつでも	-9.50009
ゴミ	-9.50035
単純	-9.50196
ものではありません	-9.50197
を治療する	-9.50271
高さ	-9.50318
科学	-9.50343
置き換え	-9.50376
属	-9.5047
を取り付ける	-9.50501
いない	-9.50591
がどのように	-9.50787
基	-9.50857
を選択し	-9.50928
とすぐに	-9.5097
似	-9.51202
ブラ	-9.51243
さえ	-9.51268
張	-9.51324
それ自体	-9.51346
目的の	-9.51389
締め付け	-9.51452
欠	-9.51459
女性が	-9.51484
位	-9.51504
住宅	-9.51548
念	-9.51548
街	-9.51549
肩	-9.51549
巨大な	-9.51549
逆	-9.51549
ざ	-9.51549
スカート	-9.51549
プロセッサ	-9.5155
弓	-9.5155
推奨事項	-9.51551
難しく	-9.51551
電池	-9.51551
立ち	-9.51589
破壊	-9.51622
低下	-9.51677
チャ	-9.51678
するのは	-9.51694
コンピュータに	-9.51738
だけが	-9.51784
それでも	-9.51809
消	-9.51847
考慮	-9.5213
ことが可能です	-9.52207
一つ	-9.52234
と考えられています	-9.52236
もので	-9.52254
サン	-9.52432
▁彼の	-9.52504
思い	-9.52625
を満たす	-9.52643
者は	-9.52773
業	-9.52793
活	-9.529
収集	-9.52954
たときに	-9.52961
カル	-9.52989
の後に	-9.53085
家庭	-9.53111
微	-9.5313
術	-9.53135
州	-9.53136
棒	-9.53137
熟	-9.53137
組み合わされ	-9.53137
マザーボード	-9.53137
犬	-9.53137
粉砕	-9.53138
検査	-9.53138
ショー	-9.53139
機関	-9.53148
見られ	-9.5315
いている	-9.53151
センター	-9.53152
強度	-9.53166
を作り出す	-9.53173
間違い	-9.53184
を変える	-9.53205
ゲル	-9.5322
伝	-9.53261
魅力的な	-9.53267
この記事では	-9.53302
ジャー	-9.5333
の味	-9.53334
お気に入りの	-9.5337
方が	-9.53504
を上げる	-9.53603
▁新しい	-9.53626
で覆われ	-9.53626
▁特に	-9.53639
▁ビデオ	-9.53864
に従う	-9.54167
▁その結果	-9.54191
るべきです	-9.5429
人たち	-9.54377
降	-9.54438
測定	-9.54451
行く	-9.54458
せる	-9.54511
タブ	-9.54525
原則	-9.54633
利	-9.54661
する必要はありません	-9.54667
片	-9.54699
化粧品	-9.54749
レストラン	-9.54749
ブレード	-9.54749
強力な	-9.54749
確かに	-9.5475
小麦粉	-9.5475
迅速に	-9.5475
記録	-9.54752
戦略	-9.54755
なさい	-9.54756
準備ができている	-9.5478
不要な	-9.54808
布地	-9.54847
を見つけることができます	-9.54888
個人情報	-9.54908
しようとし	-9.54921
信頼できる	-9.54958
を設定する	-9.54992
流体	-9.55028
映画祭	-9.55061
過程	-9.55134
使われ	-9.55204
明らか	-9.55238
男が	-9.55336
を忘れ	-9.55366
という事実のために	-9.55401
便利です	-9.55405
アル	-9.55551
必要です	-9.55665
たい場合は	-9.55681
まま	-9.55739
達成	-9.55799
起こり	-9.55925
信頼	-9.56098
品種	-9.56206
状	-9.5622
散	-9.56235
テーマ	-9.5626
オフ	-9.56352
腹	-9.56358
胸	-9.56359
路	-9.56359
造	-9.56364
をかけ	-9.56365
療法	-9.5637
及	-9.5638
月	-9.56386
朝	-9.56388
緊張	-9.56388
コネクタ	-9.56389
冷蔵庫	-9.56389
ジャガイモ	-9.56389
チャンネル	-9.56389
予防	-9.56391
支持	-9.56392
分割	-9.56395
編集	-9.56396
タブレット	-9.56397
建物	-9.56425
容器	-9.56431
中心	-9.56476
有名な	-9.56507
バック	-9.56508
するためには	-9.56515
物語	-9.56544
合う	-9.56567
インターネット上で	-9.56572
ロック	-9.56578
持ち	-9.56596
以前	-9.5667
実際の	-9.5672
なるでしょう	-9.56753
人々の	-9.56804
取得	-9.56968
レベルの	-9.57053
落	-9.5717
の詳細	-9.572
使う	-9.57224
していません	-9.57236
熱い	-9.5726
今後	-9.57262
ことは不可能です	-9.57326
違反	-9.57331
表示される	-9.57337
芸術	-9.5742
出し	-9.57439
改善	-9.57493
追跡	-9.57509
ない場合	-9.57575
を集める	-9.57597
を再	-9.57656
終了	-9.5775
好き	-9.57865
痛	-9.57968
るならば	-9.57985
除	-9.58017
球	-9.58022
未	-9.58034
北	-9.58055
バッグ	-9.58055
オープン	-9.58057
直ちに	-9.58057
住宅ローン	-9.58059
過去	-9.5806
失われ	-9.58074
を考慮に入れる	-9.58215
消費者	-9.58355
ここに	-9.5847
流れ	-9.58484
を守る	-9.58504
決	-9.58505
を使用してください	-9.58546
世界中	-9.58806
してから	-9.58826
話し	-9.58892
維持	-9.58899
であるならば	-9.59004
たこと	-9.59038
掃除	-9.59084
ブル	-9.59145
失敗	-9.59164
を開始する	-9.59223
誤って	-9.59298
の可能性	-9.59301
過程で	-9.59349
になった	-9.59363
バイ	-9.59406
生まれ	-9.59431
たちは	-9.59519
包	-9.59655
波	-9.59748
突	-9.59749
医療	-9.59749
セッション	-9.5975
清	-9.5975
穏やかな	-9.5975
依然として	-9.5975
耳	-9.59751
版	-9.59751
ソーダ	-9.59751
最良の	-9.59751
滞在	-9.59752
ほぼ	-9.59752
あまり	-9.59774
あらゆる種類の	-9.59844
ことができるでしょう	-9.59855
創造的な	-9.59864
愛する人	-9.59864
ルーター	-9.59893
理由は	-9.59917
されているので	-9.59917
弱い	-9.60066
ニング	-9.60268
装置は	-9.60271
筋肉の	-9.60505
されている場合	-9.60523
を手に入れ	-9.60568
人間の	-9.60697
大学	-9.60713
▁上記の	-9.60819
を開き	-9.60884
ビー	-9.60886
誰か	-9.60961
地域の	-9.6103
によって引き起こされる	-9.61214
支援	-9.61253
ニー	-9.61303
妻	-9.61373
長さ	-9.61382
仕	-9.61412
転送	-9.61416
ワーク	-9.61449
リス	-9.61459
砂	-9.61471
革	-9.61474
もう一つの	-9.61474
大きい	-9.61476
課題	-9.61476
損失	-9.61476
効率	-9.61487
形態	-9.61489
本物の	-9.61496
調和	-9.61498
自分の手で	-9.61521
現在の	-9.61623
壁紙	-9.6165
完璧な	-9.61653
コート	-9.61666
つけ	-9.61688
ビデオカード	-9.61693
エン	-9.61774
近い	-9.61801
焼き	-9.6186
誰	-9.61871
ルール	-9.61894
▁主なことは	-9.6194
組み立て	-9.61945
のサイズ	-9.62041
性質	-9.6205
を確認する	-9.62105
これが	-9.62142
チン	-9.6224
を使用し	-9.62324
挿入	-9.62339
わない	-9.62396
を求め	-9.62446
量の	-9.62616
受	-9.62632
接続されている	-9.62696
ないならば	-9.62729
注目	-9.62861
レン	-9.62933
されない	-9.62953
好	-9.62957
上から	-9.62999
んです	-9.63019
がすでに	-9.6304
所有者は	-9.63051
させます	-9.63093
乳	-9.63108
基本	-9.63126
なければ	-9.63153
程度	-9.63172
走	-9.63188
輪	-9.63199
こう	-9.63211
賞	-9.63218
ようです	-9.63223
否	-9.63229
ナッツ	-9.63229
充填	-9.63229
スキャン	-9.63229
ヨーロッパ	-9.63229
免疫	-9.63229
チャネル	-9.6323
英語	-9.63232
業界	-9.63233
ジャケット	-9.63236
対象	-9.63238
血管	-9.63241
定義	-9.6325
場合によっては	-9.63251
パレット	-9.63253
果実	-9.63253
頭痛	-9.6326
意図	-9.63261
地球	-9.63264
子供は	-9.63338
カップル	-9.63353
であるか	-9.63367
問題が	-9.63388
を改善する	-9.63447
女の子は	-9.63455
に直接	-9.63463
訪問者	-9.63532
を明確に	-9.63781
ことが可能である	-9.63799
起こります	-9.63835
あなたの手	-9.63842
を取得する	-9.63855
を指定	-9.63903
水で	-9.63949
ふ	-9.63951
新しいもの	-9.64132
思い出	-9.64266
しなければならない	-9.64293
を傷つけ	-9.64318
システムは	-9.644
スティック	-9.64472
を検討し	-9.6456
読	-9.64615
ったり	-9.64823
たくない	-9.64854
プロバイダ	-9.64917
に入れる	-9.64961
チャー	-9.64981
台	-9.64994
しながら	-9.65002
クリスマス	-9.65012
三	-9.65014
干	-9.65014
デザイナー	-9.65015
さらなる	-9.65015
グラフィック	-9.65015
ニンニク	-9.65015
スライド	-9.65015
フィールド	-9.65015
暖かく	-9.65016
開催	-9.65016
揚げ	-9.65016
燃焼	-9.65016
細菌	-9.65022
臓器	-9.65022
簡単で	-9.65024
公式	-9.65034
ウイルス対策	-9.65036
協力	-9.65043
関心	-9.65048
を引き起こす可能性があります	-9.65051
独立した	-9.65054
国際	-9.65054
を選択してください	-9.65138
アイコン	-9.65213
を加える	-9.65284
ワイン	-9.65296
につながる	-9.65319
を形成する	-9.65326
▁私たちが	-9.65476
はすでに	-9.65509
クラ	-9.65609
形で	-9.65898
この記事	-9.65986
をクリックして	-9.65989
ほとんどすべての	-9.66036
受け取	-9.6617
家族の	-9.66181
この問題	-9.66226
しているので	-9.66253
産	-9.66372
科	-9.6641
起動	-9.66503
人のために	-9.66568
区別	-9.66594
を決定し	-9.66605
多い	-9.66775
鏡	-9.66828
払	-9.66831
シェル	-9.66833
傾向	-9.66833
プレゼンテーション	-9.66833
トマト	-9.66833
基準	-9.66836
を確実にする	-9.66836
保管	-9.66842
蒸気	-9.66844
道路	-9.66856
を通じて	-9.66875
という事実にもかかわらず	-9.66895
適切	-9.66896
を持っていない	-9.66962
を入れる	-9.66995
再生	-9.67014
豊かな	-9.67045
一方	-9.67081
付き	-9.67098
このプロセス	-9.672
顔の	-9.6735
接触	-9.67482
されている場合は	-9.67492
危険性	-9.67517
感じ	-9.67522
効果的に	-9.67594
ルー	-9.67635
ポート	-9.67636
は完全に	-9.67652
グレー	-9.67773
変換	-9.67784
動機	-9.68019
得	-9.68156
問題を解決する	-9.68171
ビーチ	-9.68256
た場合は	-9.68289
ーン	-9.68341
再起動	-9.68442
食べる	-9.68484
満	-9.68543
相談	-9.68551
を削除し	-9.68554
増	-9.68587
フィルタ	-9.68588
ョ	-9.68628
メント	-9.68649
飲み	-9.68657
脱	-9.6868
コンクリート	-9.68681
倒	-9.68684
集中	-9.68684
テクニック	-9.68685
ワードローブ	-9.68685
スケッチ	-9.68685
腎臓	-9.68685
マウス	-9.68685
変わる	-9.68689
小さく	-9.6869
男の子	-9.6869
真菌	-9.68692
生成	-9.68723
活用	-9.68737
ボート	-9.6874
厚い	-9.68748
染色	-9.68764
不可能	-9.68792
ガン	-9.68819
バター	-9.68823
が表示され	-9.68847
残り	-9.68903
アート	-9.68929
を必要とします	-9.6896
得る	-9.69179
フィン	-9.69192
提示	-9.69201
速	-9.69327
立て	-9.69417
モデルは	-9.69453
塗	-9.69581
一度	-9.69623
されて	-9.69695
になることができます	-9.69713
▁つまり	-9.6973
ニス	-9.69732
結果は	-9.69819
達	-9.69819
クロ	-9.69854
を選択して	-9.69901
これまで	-9.69978
に関して	-9.70067
訪問	-9.70089
を引き起こし	-9.701
ログ	-9.70111
の周りに	-9.70154
豊か	-9.70359
と呼ばれる	-9.7042
屋	-9.70493
誰も	-9.70504
復	-9.70533
待	-9.70541
安定	-9.70548
惑	-9.70565
コレクション	-9.70571
煙	-9.70571
アクティブ	-9.70571
キャビア	-9.70571
王	-9.70571
ひとつ	-9.70572
オーディオ	-9.70572
極	-9.70572
ノズル	-9.70572
スピーカー	-9.70572
ターゲット	-9.70572
粉末	-9.70574
幸せ	-9.70575
助言	-9.70575
展開	-9.70576
凍結	-9.70577
粒子	-9.70583
部門	-9.70586
配信	-9.70587
実施	-9.70594
将来的に	-9.70608
マシン	-9.70608
理想的な	-9.7061
外側	-9.70611
土地	-9.70619
出産	-9.70645
靴下	-9.70659
のいずれか	-9.7067
信頼性	-9.70678
アイ	-9.70693
マット	-9.70791
へのアクセス	-9.708
緑色	-9.70907
飾り	-9.7094
戦い	-9.70949
に関連する	-9.71121
に関する情報	-9.71223
を行い	-9.714
リセット	-9.71741
高価な	-9.71751
しかし	-9.71779
レート	-9.72005
進	-9.72064
んでいる	-9.72082
に入れ	-9.72299
することによって	-9.72343
関	-9.7235
選択した	-9.72397
管	-9.72448
はとても	-9.72453
論	-9.72453
難	-9.72456
粉	-9.72476
対策	-9.72483
タッチ	-9.72493
島	-9.72494
オーガズム	-9.72494
キッチン	-9.72495
宮殿	-9.72495
を扱う	-9.72495
アジア	-9.72495
需要	-9.72495
売り手	-9.72495
サンプル	-9.72495
じゃがいも	-9.72495
カーカス	-9.72495
ライフスタイル	-9.72504
心臓	-9.72507
チケット	-9.72515
素早く	-9.72517
電圧	-9.7252
ことを確認する	-9.72521
導入	-9.72522
ビーズ	-9.7254
コーン	-9.72619
デン	-9.72678
広い	-9.72756
トリック	-9.72791
締め	-9.72798
シンプルで	-9.72894
プログラムは	-9.72903
を食べる	-9.72915
パス	-9.72986
を考慮する	-9.73118
▁彼が	-9.73256
最新の	-9.73372
実現	-9.73388
にあり	-9.73504
第	-9.73579
行われた	-9.73686
に移動する	-9.73828
両方の	-9.73979
性的	-9.74064
この薬	-9.74078
新年	-9.74091
構築	-9.74095
製品が	-9.74119
ロシアの	-9.74205
人間	-9.7422
可能性があり	-9.74296
発行	-9.7434
ワイヤ	-9.74359
客	-9.7443
無効	-9.74443
退	-9.74453
イラスト	-9.74455
塊	-9.74455
キャンディー	-9.74455
ポストカード	-9.74455
チューブ	-9.74455
デザート	-9.74455
釘	-9.74455
沸	-9.74456
演奏	-9.74456
マイナス	-9.74456
南	-9.74456
感謝	-9.74461
振りかけ	-9.74461
職業	-9.74461
予定	-9.74471
不快感	-9.74478
最近	-9.74481
未来	-9.74481
適応	-9.74482
動画	-9.74486
先端	-9.74489
ホット	-9.74508
暗く	-9.74557
想像	-9.7461
得られた	-9.74615
ロシア	-9.74689
最も一般的な	-9.74691
渡	-9.74756
以下	-9.74772
フライ	-9.74828
を変更し	-9.74832
これを	-9.74899
を強調し	-9.749
冬	-9.74975
現在	-9.75057
装飾的な	-9.75057
レイ	-9.75136
していた	-9.7527
自信を持って	-9.7539
紹介	-9.75525
指定	-9.75537
水に	-9.75604
が必要である	-9.7562
強	-9.7566
厳	-9.75771
専門家は	-9.75804
がない場合	-9.75842
証明	-9.75861
両親	-9.75986
単	-9.76006
瞬間に	-9.7601
されなければなりません	-9.76206
シーン	-9.76244
歩	-9.76255
起	-9.76258
テー	-9.76263
女	-9.76323
効果的	-9.76354
安全に	-9.76367
取り除く	-9.76367
具	-9.76386
モー	-9.76387
アー	-9.76396
補	-9.76412
拡張	-9.76412
ジン	-9.76443
星	-9.76448
ラッカー	-9.76448
脚	-9.76452
ぼ	-9.76452
ゆ	-9.76455
スピード	-9.76455
メカニズム	-9.76456
命令	-9.76456
グリッド	-9.76456
概念	-9.76456
ソーシャルメディア	-9.76461
待ち	-9.76472
ニシン	-9.76475
ダン	-9.76496
展示	-9.76508
エリア	-9.76511
地元の	-9.76512
プレイ	-9.76539
もう	-9.76548
ニット	-9.7657
軽い	-9.76654
を避けるために	-9.76657
水分	-9.76702
身体	-9.76759
生物	-9.76768
込	-9.76777
のイメージ	-9.76804
するときに	-9.76837
全体的な	-9.76838
日に	-9.76854
風味	-9.76868
を求める	-9.76905
の流れ	-9.76916
フリー	-9.77041
ことさえ	-9.77048
適切に	-9.77091
にのみ	-9.77252
▁それはまた	-9.77332
きれいに	-9.77413
考える	-9.77489
全体を	-9.7751
するならば	-9.77532
使用することができます	-9.77649
起こ	-9.77667
の背景	-9.77813
軽	-9.77854
現れる	-9.77868
国内	-9.77871
かもしれませんが	-9.77944
あなたはそれを	-9.78162
を調整する	-9.78283
経済	-9.78327
要	-9.78403
設	-9.78433
病理学	-9.78437
オレンジ	-9.78476
コントロール	-9.78481
記載	-9.78492
甲状腺	-9.78496
いっぱい	-9.78496
いずれにせよ	-9.78496
既製の	-9.78496
洗い流し	-9.78496
握	-9.78496
きちんと	-9.78496
スーパー	-9.78496
宣伝	-9.78497
古代	-9.78498
彫刻	-9.78499
予約	-9.78499
ハイライト	-9.78503
指標	-9.78509
ボトル	-9.78509
メンバー	-9.78515
取引	-9.78526
に落ち	-9.78547
焼く	-9.78563
知っている	-9.78581
電子	-9.78587
大量の	-9.78632
つい	-9.78647
を探し	-9.78653
最も頻繁に	-9.7872
まった	-9.78728
付きの	-9.7873
された場合	-9.78736
を失い	-9.78771
見る	-9.78823
公開	-9.78882
誤	-9.78982
するのに役立ちます	-9.78988
フライパン	-9.79013
を購入し	-9.79316
ピー	-9.79378
手動	-9.79468
彼らに	-9.79495
お客様の	-9.79595
したがって	-9.79633
それによって	-9.79701
触	-9.79757
留	-9.79806
のセット	-9.79818
グラ	-9.79862
より大きな	-9.79904
るとき	-9.79984
後ろ	-9.79987
考えて	-9.80076
なので	-9.80103
あなたの医者	-9.80117
吸収	-9.8015
▁ほとんどの	-9.80257
質問を	-9.80269
分離	-9.80322
店で	-9.80329
発生します	-9.80349
特別	-9.80407
全く	-9.80433
選	-9.80477
決して	-9.8052
ユニット	-9.80527
聴	-9.80554
防	-9.80565
給	-9.8057
士	-9.80577
穏やかに	-9.80579
アーティスト	-9.80579
貴重な	-9.80579
ウサギ	-9.8058
歌	-9.8058
に焦点を当て	-9.8058
スーツ	-9.8058
休暇	-9.8058
最初は	-9.8058
腸	-9.8058
要件	-9.80581
圧縮	-9.80588
▁これらは	-9.80588
を恐れてい	-9.80597
統合	-9.80597
といった	-9.80601
ハーブ	-9.80607
厚さ	-9.80613
確実に	-9.80619
ニーズ	-9.80625
スクリーン	-9.8063
金型	-9.80633
方法です	-9.80651
固体	-9.80654
著者	-9.8067
ネット	-9.80678
中断	-9.80708
し始め	-9.80728
過剰な	-9.80747
を使用することをお勧めします	-9.80785
フラ	-9.80837
インド	-9.80853
を得ることができます	-9.81126
危険な	-9.81182
を選択する必要があります	-9.8123
を切る	-9.81264
私達	-9.81274
と言う	-9.813
自由に	-9.81367
料金	-9.81441
▁まず第一に	-9.81449
簡単	-9.81473
を使用することができます	-9.81625
ゆっくり	-9.81714
無料	-9.81832
ために使用されます	-9.81871
▁現在	-9.8189
ではないので	-9.81894
行う	-9.81986
住	-9.82045
学ぶ	-9.82074
のうち	-9.82076
や他の	-9.82204
をチェックする	-9.82375
の結果として	-9.82403
将来	-9.82472
透明	-9.8248
ベル	-9.82527
リップ	-9.82592
耐久性	-9.82672
過ごす	-9.82686
持	-9.82693
東	-9.82698
ラップ	-9.82699
京	-9.827
束	-9.82701
キャンペーン	-9.82707
否定的な	-9.82707
既存の	-9.82707
むしろ	-9.82707
加入者	-9.82707
役割を果た	-9.82707
聖	-9.82707
雪だるま	-9.82707
威	-9.82707
枝	-9.82707
インフルエンザ	-9.82708
帰	-9.82708
献	-9.82708
別々に	-9.82709
いかなる	-9.82709
観光客	-9.82712
産業	-9.82715
を使った	-9.82723
マルチ	-9.82728
ことを試みる	-9.82735
恋	-9.82755
ピング	-9.8281
安い	-9.8281
洗う	-9.82817
ピンク	-9.82848
快適さ	-9.82884
広く	-9.82898
下部	-9.83006
よい	-9.83103
最終的に	-9.83107
彼女が	-9.83127
を説明し	-9.83337
着用	-9.83342
を学ぶ	-9.83361
積極的に	-9.83362
世界で	-9.83459
添加	-9.83503
必要がない	-9.83509
でのみ	-9.83526
を高める	-9.83688
行うことができます	-9.83711
求められ	-9.83849
さらには	-9.83853
を知っている	-9.83991
マイ	-9.84014
ように見えます	-9.84065
を置き	-9.84156
ている場合	-9.84296
お互い	-9.84376
あなたと	-9.84413
ていない場合は	-9.84465
以前に	-9.84566
するので	-9.84614
多様	-9.84668
能	-9.84681
したら	-9.84684
以外	-9.84713
なかった場合	-9.84726
ケー	-9.84732
ゼ	-9.84824
混	-9.84841
潤滑	-9.84865
ティー	-9.84878
彩	-9.8488
綿	-9.8488
田	-9.8488
デフォルト	-9.84881
参照	-9.84881
コレステロール	-9.84881
象徴	-9.84881
サードパーティ	-9.84881
テクスチャ	-9.84881
を描き	-9.84882
キャンセル	-9.84882
建築	-9.84882
取り外す	-9.84882
を縫う	-9.84883
故障	-9.84883
科医	-9.84885
タイトル	-9.84888
ストレッチ天井	-9.8489
伸ば	-9.8489
夕方	-9.84891
理論	-9.84896
道具	-9.84904
ログイン	-9.84907
彼自身	-9.84911
高速	-9.84911
会話	-9.84925
▁このために	-9.84942
最小	-9.84942
ドライ	-9.84943
子猫	-9.84991
マスク	-9.85014
ザー	-9.85141
を楽しむ	-9.85153
着色	-9.85158
落ち	-9.85234
のを助けます	-9.85324
健康的な	-9.8534
決め	-9.85353
似ています	-9.85361
さまざまな種類の	-9.85368
言え	-9.8537
だと	-9.85386
ている場合は	-9.85389
一日	-9.854
ランド	-9.85406
する必要があり	-9.85441
ことが多い	-9.85452
困難な	-9.85492
与える	-9.85493
ドア	-9.85494
静かに	-9.85505
ビュー	-9.85566
背景	-9.85623
見えます	-9.85691
さない	-9.85705
いたします	-9.85742
オリジナル	-9.8583
が完全に	-9.85838
制作	-9.85848
無料の	-9.85865
に対処し	-9.85884
つまり	-9.85951
形成	-9.8605
医師は	-9.86099
のが難しい	-9.86102
を防ぐために	-9.86158
混ぜる	-9.86212
適している	-9.86255
壊	-9.86436
そしてそれが	-9.86473
作られ	-9.86581
を接続する	-9.86651
へと	-9.86652
終わり	-9.86763
ねじれ	-9.86768
を取り除くために	-9.86801
完璧	-9.86873
有用	-9.87003
を注ぐ	-9.87004
興	-9.87061
介	-9.87079
区	-9.87084
鮮	-9.87085
幅	-9.87092
師	-9.87092
スプレー	-9.87097
アウト	-9.87097
影	-9.87097
最善	-9.87102
ステンドグラス	-9.87102
焦点	-9.87103
スマート	-9.87103
かみそり	-9.87103
バナナ	-9.87103
貼り付け	-9.87103
ているならば	-9.87103
合併症	-9.87103
魂	-9.87103
デスクトップ	-9.87103
美味しい	-9.87103
睡眠	-9.87104
アイスクリーム	-9.87104
ジューシー	-9.87104
予算	-9.87106
施設	-9.87108
関節	-9.87108
照明	-9.8711
態度	-9.87127
除外	-9.87135
ローラー	-9.87147
事実	-9.87151
ゴム	-9.87162
積極的な	-9.87163
海外	-9.87202
空間	-9.87267
スタート	-9.87276
散水	-9.87278
その結果	-9.87355
の内容	-9.87412
つか	-9.87465
をもたらします	-9.87525
カン	-9.87601
手紙	-9.87689
願い	-9.87742
について話す	-9.87815
をインストールする	-9.87885
を感じる	-9.88132
る必要がある	-9.88313
多くの人が	-9.88365
をどのように	-9.88527
このオプション	-9.88549
ドル	-9.88671
明確に	-9.88698
の一つ	-9.88766
ませんが	-9.88906
のに役立ち	-9.88935
理由です	-9.88949
効率的	-9.88999
代表	-9.89144
増加	-9.89215
それ自身の	-9.89221
材	-9.89308
約	-9.89346
悪化	-9.89352
氏	-9.89352
変わり	-9.89362
ガイド	-9.89363
裏	-9.89365
含有量	-9.89375
軟	-9.89376
折りたたみ	-9.89376
習慣	-9.89376
リクエスト	-9.89376
残念ながら	-9.89376
プロモーション	-9.89376
チューナー	-9.89376
ことがよくあります	-9.89377
瓶	-9.89377
反射	-9.89379
と見なされ	-9.8938
警告	-9.8938
ストレッチマーク	-9.89382
子宮	-9.89383
もう一度	-9.89384
農業	-9.89384
主義	-9.89388
光沢のある	-9.89388
行為	-9.89392
につながる可能性があります	-9.894
木材	-9.89402
準備ができています	-9.89403
不可	-9.89406
換気	-9.89411
リーダー	-9.89428
サイド	-9.89429
巻き	-9.89432
ベスト	-9.89451
ベルト	-9.89454
角度	-9.89455
ベー	-9.89619
ことを学ぶ	-9.89637
手法	-9.89645
を見つけて	-9.89872
ところで	-9.89901
のを助け	-9.89994
と呼ばれ	-9.90036
シン	-9.90248
と考えられ	-9.90454
を節約する	-9.90463
せずに	-9.90779
または他の	-9.90807
トラ	-9.90824
敷設	-9.91089
そしてそれから	-9.91101
に接続する	-9.91259
を助ける	-9.91364
を正確に	-9.91389
しばらく	-9.91559
主張	-9.91595
ユーザ	-9.91604
を変え	-9.91605
そしてその	-9.91623
義	-9.91657
報告	-9.91689
役	-9.91689
縁	-9.91692
滴	-9.91697
漆	-9.91701
マリネ	-9.91701
越	-9.91701
魔法の	-9.91701
かわいい	-9.91702
プレゼント	-9.91702
週	-9.91702
イヤリング	-9.91702
クレアチン	-9.91702
シンボル	-9.91702
承認	-9.91702
電子レンジ	-9.91702
コショウ	-9.91702
樹	-9.91702
映像	-9.91702
メソッド	-9.91702
ミルク	-9.91702
明るさ	-9.91703
ハードウェア	-9.91703
浸透	-9.91704
木製の	-9.91708
市民	-9.91711
めったに	-9.91714
動脈	-9.91716
パーティー	-9.9172
家庭用	-9.91768
フィット	-9.9177
選手	-9.91773
かかる	-9.91794
たとき	-9.91808
発明	-9.91821
運転手	-9.91822
主要な	-9.91825
標準的な	-9.91887
に入り	-9.91908
際に	-9.91913
壁に	-9.91922
プリ	-9.9193
後で	-9.91992
の形成	-9.91997
作り	-9.92022
になって	-9.92036
彼ら自身の	-9.92037
に触れ	-9.92137
を獲得し	-9.92172
部分的に	-9.92236
ことを確認してください	-9.92321
来る	-9.92391
それは非常に	-9.92466
異なります	-9.92502
っていない	-9.92551
ものであり	-9.92689
男は	-9.92838
になるように	-9.92939
したとき	-9.93039
たとえば	-9.9305
であるべきです	-9.9307
推奨	-9.93092
最も重要なこと	-9.93113
になりました	-9.93121
自体が	-9.93133
を飲む	-9.93144
クト	-9.93173
願	-9.93376
通過する	-9.93523
農	-9.93535
始めた	-9.93643
つな	-9.93653
逃	-9.93682
解放	-9.93775
所有	-9.93863
るか	-9.9387
に取り付ける	-9.93881
強化	-9.93881
ことができました	-9.93902
類	-9.93924
両	-9.93933
果	-9.93962
かかと	-9.93983
運	-9.93989
野	-9.94022
妊娠中	-9.9407
そんな	-9.94082
リビングルーム	-9.94082
繊細さ	-9.94082
一貫性	-9.94082
塩漬け	-9.94083
お母さん	-9.94083
カクテル	-9.94083
群	-9.94083
プライマー	-9.94083
株	-9.94083
ポンプ	-9.94083
ばかり	-9.94083
無駄	-9.94084
スプーン	-9.94084
混乱	-9.94087
どのくらい	-9.94098
原理	-9.94112
腹部	-9.94127
どれ	-9.94144
プロット	-9.94194
使用できます	-9.94198
を保護する	-9.94258
セン	-9.94264
背中	-9.94297
のを助けるでしょう	-9.943
続く	-9.94326
たいのなら	-9.94337
外国	-9.94369
すれば	-9.94371
に対応する	-9.94383
の終わりに	-9.94399
クリ	-9.94575
進め	-9.946
インターネット上の	-9.94604
適用されます	-9.94605
グリ	-9.94621
出力	-9.94719
できること	-9.94791
であれば	-9.94898
ていく	-9.94938
作る	-9.94972
これに	-9.94977
支	-9.95069
味と	-9.9512
する価値があります	-9.95123
数時間	-9.95236
手動で	-9.95324
の周りの	-9.95475
ステップバイステップの	-9.95587
ことを可能にし	-9.95597
わり	-9.95694
と思う	-9.95797
を形成し	-9.95801
ハー	-9.95951
きました	-9.96003
発見	-9.96141
ことが必要です	-9.96158
暗	-9.96197
少	-9.96313
液	-9.96396
団	-9.96397
インストールされている	-9.96408
提供する	-9.96442
飲	-9.96447
恋人	-9.96466
局	-9.9647
毒	-9.9647
菌	-9.96484
学的	-9.96488
策	-9.96492
創	-9.96497
蔵	-9.96498
皆	-9.965
額	-9.96501
最愛の	-9.96502
私に	-9.96502
浴	-9.96511
ケット	-9.96513
癌	-9.96521
スタッフ	-9.96521
マネージャ	-9.96521
喉	-9.96522
酢	-9.96522
シフト	-9.96522
発電機	-9.96522
ホテル	-9.96522
偽	-9.96522
明確な	-9.96522
書き換え	-9.96522
投与量	-9.96522
雨	-9.96522
四	-9.96522
資料	-9.96522
法律	-9.96522
代謝	-9.96523
添付	-9.96524
▁これを行うために	-9.96532
体内の	-9.9654
軽食	-9.96541
レンガ	-9.96542
寒い	-9.9655
ホール	-9.96555
欠点	-9.96564
曲げ	-9.96565
ブルー	-9.96587
方式	-9.96626
灰色	-9.96627
提出	-9.96631
適用される	-9.96634
を築く	-9.96636
歩く	-9.96677
プレス	-9.96701
サブ	-9.96702
ダンス	-9.96718
が発生する	-9.96755
作られています	-9.9676
することを可能にする	-9.96767
取り除かれ	-9.96792
▁はい	-9.96798
プレ	-9.9694
はがき	-9.9697
を示しています	-9.97086
することが重要です	-9.97168
良いです	-9.97298
されていない場合	-9.97307
を固定する	-9.97369
ディー	-9.97409
を読む	-9.97471
があること	-9.97556
ラック	-9.97578
フロー	-9.97609
第一	-9.97626
を制御する	-9.97627
同意	-9.97729
分解	-9.97795
に見えます	-9.97888
ここでは	-9.97911
高く	-9.97913
男性は	-9.98107
知っています	-9.98194
を大幅に	-9.9822
さて	-9.98296
カラ	-9.98405
っていた	-9.98424
冷	-9.98574
つながり	-9.98605
▁これが	-9.98725
会い	-9.98867
銀	-9.98907
視覚的	-9.98955
縮	-9.98977
強制	-9.98987
よりもはるかに	-9.98993
問	-9.98995
寝	-9.99011
乱	-9.99016
称	-9.99018
磨	-9.9902
時間の経過とともに	-9.99021
それどころか	-9.99021
スナック	-9.99022
余	-9.99022
碑文	-9.99022
けいれん	-9.99022
チェーン	-9.99022
ミネラル	-9.99022
必須	-9.99022
毛皮のコート	-9.99022
義務	-9.99023
検証	-9.99023
退屈	-9.99025
ウィ	-9.99025
まっすぐ	-9.99027
医師に相談	-9.99029
少量の	-9.99031
豚肉	-9.99031
一連の	-9.99031
添加剤	-9.9904
右側	-9.99046
電子メール	-9.99052
を残す	-9.99053
どれだけ	-9.99055
勉強	-9.99065
マイク	-9.99071
デモ	-9.99102
消化	-9.99106
かない	-9.99147
重量	-9.99227
ランク	-9.99269
を避ける	-9.99323
物事	-9.99336
を生み出し	-9.99596
べきであり	-9.99597
を引き起こします	-9.99652
グル	-9.99665
を入力し	-9.99736
方向に	-9.99762
乾燥した	-9.99811
見た	-9.99821
高品質	-9.99821
重い	-9.99946
の後ろに	-9.99955
合わせ	-9.99999
化された	-10.0031
となり	-10.0037
が含まれています	-10.0039
で作られた	-10.0041
始めました	-10.0042
節約	-10.0048
見つける	-10.005
書かれ	-10.0054
くなる	-10.0065
夜に	-10.0066
かについて	-10.0068
シンプル	-10.007
それぞれが	-10.0082
るべき	-10.0099
が高い	-10.0101
を与えるために	-10.0138
計	-10.015
可	-10.0154
市	-10.0156
十	-10.0156
任	-10.0158
栄	-10.0158
環	-10.0158
掘	-10.0159
頂	-10.0159
チャンス	-10.0159
呼び出し	-10.0159
寿命	-10.0159
コマンド	-10.0159
露	-10.0159
アンテナ	-10.0159
インジケータ	-10.0159
希望の	-10.0159
複合体	-10.0159
間違った	-10.0159
アダプタ	-10.0159
大きさ	-10.0159
を止める	-10.0159
幅広い	-10.0159
絶縁	-10.016
割合	-10.016
反対側	-10.016
ポケット	-10.016
風邪	-10.0161
車両	-10.0162
進行	-10.0164
されなければならない	-10.0165
ーズ	-10.0167
変形	-10.0169
円形	-10.0171
きれいな	-10.0171
相手	-10.0174
地面	-10.0177
フック	-10.0177
結果として	-10.0178
言い	-10.0185
であった	-10.0188
本サイト	-10.0192
を設定し	-10.0196
アナ	-10.0204
されるように	-10.0207
を定期的に	-10.0213
一方で	-10.0214
安全な	-10.0216
排除	-10.0216
入手	-10.0217
残る	-10.0217
端部	-10.0218
を確認し	-10.0219
見て	-10.022
てお	-10.0233
管理者	-10.0236
住民	-10.0236
を考えると	-10.0242
訴え	-10.0242
を修正する	-10.0278
を強化する	-10.0282
職	-10.0287
を拾う	-10.0313
ではないこと	-10.0316
他に	-10.0317
低く	-10.032
良	-10.0331
を復元する	-10.0336
していて	-10.0338
分野で	-10.0342
に影響を与え	-10.0344
を保持し	-10.0354
それはあなたの	-10.0362
および他の	-10.0363
を失う	-10.0368
眠	-10.0385
エア	-10.0402
ヘ	-10.0406
後者	-10.0408
させることができます	-10.0417
牛	-10.0417
採	-10.0417
ウェブ	-10.0418
施	-10.0418
判明し	-10.0418
筋	-10.0418
射	-10.042
ダウン	-10.042
途	-10.0421
時点で	-10.0421
森	-10.0421
川	-10.0421
ないため	-10.0422
ドイツ	-10.0422
恵	-10.0422
ヨ	-10.0422
コミュニティ	-10.0422
ニュース	-10.0422
腐	-10.0422
にかかわらず	-10.0422
ホステス	-10.0422
敵	-10.0422
詩	-10.0422
韓国	-10.0422
軸	-10.0422
浮	-10.0422
即座に	-10.0422
暖房	-10.0422
暖炉	-10.0422
スタンド	-10.0422
膣	-10.0422
単一の	-10.0422
ガジェット	-10.0422
がどれほど	-10.0423
防止	-10.0423
を育て	-10.0424
シリンダー	-10.0424
絵画	-10.0424
縫い目	-10.0426
時期	-10.0427
レポート	-10.0427
ゼロ	-10.0427
あまりにも	-10.0428
加	-10.043
発表	-10.0431
方々	-10.0434
石油	-10.0435
容量	-10.0436
前面	-10.0436
純粋な	-10.0442
ロープ	-10.0442
ポー	-10.0442
数分	-10.0446
紙から	-10.0447
世話をする	-10.045
を意味する	-10.0457
注意を払って	-10.0464
自由な	-10.0466
があった	-10.0471
遅れ	-10.0472
形成され	-10.0488
に関しては	-10.0493
を好む	-10.0505
厳密に	-10.051
を示し	-10.0524
を取り除きます	-10.0539
なくても	-10.0551
モードで	-10.0555
を適切に	-10.0568
私たちに	-10.0575
につれて	-10.0584
が形成され	-10.0586
を受けた	-10.0588
ようになります	-10.0591
を目指し	-10.0599
復元	-10.0604
ックス	-10.0608
一度に	-10.061
を解決する	-10.0615
行った	-10.0617
最終	-10.0632
されているか	-10.0633
に見える	-10.0644
があるならば	-10.0644
を使用する場合	-10.0646
待って	-10.065
主なことは	-10.0662
行き	-10.0666
必要とされ	-10.0668
振	-10.0671
丸	-10.0672
鋭	-10.0672
象	-10.0689
議	-10.069
邪	-10.069
認	-10.0691
節	-10.0691
報	-10.0691
眼	-10.0691
季節	-10.0692
占	-10.0692
改	-10.0692
従業員	-10.0692
百	-10.0692
アセンブリ	-10.0692
羊	-10.0692
長方形	-10.0692
サンタクロース	-10.0692
スピーチ	-10.0692
汁	-10.0692
矢印	-10.0692
頃	-10.0692
缶	-10.0692
に連絡する	-10.0692
削減	-10.0693
これらすべての	-10.0693
ネイルプレート	-10.0693
共同	-10.0693
彼氏	-10.0695
できるだけ早く	-10.0695
キーボード	-10.0696
に表示されます	-10.0696
のに十分	-10.0696
湿気	-10.0696
工場	-10.0696
モニター	-10.0699
バルク	-10.07
若者	-10.0703
カフェ	-10.0703
遠く	-10.0704
ことに注意してください	-10.0704
調理する	-10.0707
創造性	-10.0709
サーバー	-10.071
ペア	-10.0714
機能する	-10.072
多様な	-10.0721
を作成するために	-10.0721
関連性	-10.0724
不適切な	-10.0724
を見てください	-10.0728
によって区別され	-10.0729
んでいます	-10.0735
持ち上げ	-10.0742
もはや	-10.0743
送り	-10.0753
となって	-10.0762
感じる	-10.0764
準備する	-10.0771
ターン	-10.0775
大幅に	-10.078
を付け	-10.0784
を繰り返す	-10.0793
でしょうか	-10.0801
しなければなりません	-10.0804
忘れ	-10.0807
ボタンをクリック	-10.0814
であり得る	-10.0816
を経験し	-10.0836
開発者	-10.0837
パラ	-10.0838
私はあなたが	-10.0841
を高め	-10.0844
を交換する	-10.0857
生じる	-10.086
を理解するために	-10.0877
た後に	-10.0879
プラス	-10.0885
を確認する必要があります	-10.09
ように見える	-10.09
パンケーキ	-10.0907
対応する	-10.0919
ユーザーに	-10.093
教え	-10.093
に従事	-10.0934
不安	-10.0942
なくなり	-10.0943
赤ちゃんが	-10.0958
ことになる	-10.0958
協	-10.0965
庭	-10.0966
寄	-10.0968
蜂蜜	-10.097
ヴ	-10.097
フレーズ	-10.097
ディスプレイ	-10.097
ギリシャ	-10.097
フロント	-10.097
豆	-10.097
大規模な	-10.097
草	-10.097
滑らかに	-10.097
蓋	-10.097
ステータス	-10.097
羽	-10.097
真ん中	-10.097
柔軟	-10.097
みんな	-10.097
に向かって	-10.097
輸送	-10.097
世代	-10.097
衛生	-10.0971
過度の	-10.0971
保湿	-10.0971
現象	-10.0971
皆様	-10.0971
笑顔	-10.0971
潤滑剤	-10.0972
費やし	-10.0972
もう少し	-10.0975
会場	-10.0977
性能	-10.0982
注意してください	-10.0983
受け入れ	-10.0988
安定した	-10.099
ブラック	-10.0991
自動車	-10.0992
ことを知っています	-10.0992
プラン	-10.0993
ビール	-10.0995
持っている	-10.1016
のに十分な	-10.1017
あって	-10.1017
カール	-10.1025
ようになる	-10.103
を入力する	-10.1032
行って	-10.1036
両親は	-10.1037
探	-10.1046
得られる	-10.1047
しようとする	-10.105
機械的	-10.1051
完全	-10.1053
価値があり	-10.1054
見つけることができます	-10.1063
を調べ	-10.1072
が含まれ	-10.1076
を減らし	-10.1088
と言って	-10.1088
しま	-10.1091
することができるので	-10.1091
に来る	-10.1096
獲得	-10.1105
を下げ	-10.1106
がありました	-10.1107
作成された	-10.1115
自信	-10.1123
すぐ	-10.1147
を必要としない	-10.1157
をチェックし	-10.1171
常	-10.1181
を費やす	-10.1185
を作るために	-10.1186
最も簡単な	-10.1187
してみてください	-10.119
処方され	-10.12
価	-10.1211
である場合	-10.1217
らせ	-10.1223
を楽しんで	-10.1231
に戻る	-10.1232
過剰	-10.1233
に対応し	-10.1235
についても	-10.1235
黄	-10.1237
痛みを伴う	-10.1238
ているとき	-10.1247
休	-10.1248
内側に	-10.125
のほとんどは	-10.1253
どちら	-10.1253
につながります	-10.1254
界	-10.1254
ショップ	-10.1255
評	-10.1255
伴	-10.1255
ダイオード	-10.1255
取り組み	-10.1255
盗	-10.1255
アシスタント	-10.1255
抗生物質	-10.1255
迅速な	-10.1255
スポンジ	-10.1256
連絡先	-10.1256
ストーブ	-10.1256
トラフィック	-10.1256
腰	-10.1256
ポテト	-10.1256
かゆみ	-10.1256
セグメント	-10.1256
予測	-10.1256
クリアランス	-10.1256
氷	-10.1256
概要	-10.1256
補償	-10.1256
フラッシュ	-10.1256
述べ	-10.1256
のが最善です	-10.1256
わずかな	-10.1256
に関係なく	-10.1256
金属製の	-10.1256
人気のある	-10.1256
ハードディスク	-10.1257
時間がかかり	-10.1257
時計	-10.1258
主なものは	-10.1258
可能な限り	-10.1258
景色	-10.1258
サイ	-10.1259
ドリフト	-10.1259
違う	-10.1259
番号付け	-10.126
湿った	-10.1261
過ごし	-10.1262
を必要としません	-10.1262
結合	-10.1264
を受け取り	-10.1265
異常な	-10.1268
注ぐ	-10.1269
豊富な	-10.1272
あなたにとって	-10.1272
を表示し	-10.1273
たいと思います	-10.1274
ーム	-10.1276
に置かれ	-10.1278
を促進する	-10.1279
っており	-10.128
リアル	-10.1283
注意を払う	-10.1288
実行されます	-10.1291
▁一部の	-10.1291
作られている	-10.1293
作成され	-10.1296
が含まれます	-10.1303
することも	-10.1316
取り付けられている	-10.1328
を作ること	-10.1328
可能性があるので	-10.1338
と思って	-10.1341
人形	-10.1341
バル	-10.1356
を掃除する	-10.1367
を紹介し	-10.1372
を支払う	-10.1374
押	-10.1381
最も簡単な方法	-10.1388
を引き付ける	-10.1412
作ることができます	-10.1413
壊れ	-10.1425
を避け	-10.143
合い	-10.144
ことは不可能である	-10.1451
ように見え	-10.1452
することが可能です	-10.1453
私達は	-10.1453
難しいです	-10.1497
思い出させ	-10.15
を取り除くことができます	-10.15
を選択するとき	-10.1503
薄	-10.1504
登	-10.1507
個	-10.1512
考	-10.152
湿	-10.1523
覚えておく	-10.153
表示され	-10.1531
反映	-10.1532
染	-10.1533
状況では	-10.1533
いずれ	-10.1534
耐	-10.1535
に近づく	-10.1537
方法を学ぶ	-10.1539
字	-10.154
取り付けられています	-10.1541
建	-10.1542
周	-10.1547
救	-10.1548
クリーニング	-10.1549
課	-10.1549
授	-10.1549
正方形	-10.155
プライベート	-10.155
拭	-10.155
被	-10.155
アルファベット	-10.155
保険	-10.155
椎	-10.155
迅速かつ	-10.155
銃	-10.155
たとえ	-10.155
ホイール	-10.155
安価な	-10.155
実質的に	-10.155
幸福	-10.155
スロット	-10.155
繊細な	-10.155
ラウンド	-10.155
粘膜	-10.155
破損	-10.155
コンクリートミキサー	-10.155
ポリシー	-10.155
バイオガス	-10.1551
ためだけに	-10.1551
ゲルワニス	-10.1551
に最適です	-10.1552
振動	-10.1552
はさみ	-10.1553
観光	-10.1555
と感じ	-10.1559
をもたらし	-10.156
わけではない	-10.1561
満たされ	-10.1561
具体的な	-10.1561
日付	-10.1563
狭い	-10.1564
ハイ	-10.1566
をよりよく	-10.1568
ペン	-10.1572
そこから	-10.1575
になること	-10.1575
について考える	-10.158
成功した	-10.159
に落ちる	-10.1594
によって引き起こされ	-10.1595
推奨され	-10.1601
レース	-10.161
動く	-10.1619
購入した	-10.1621
見えない	-10.1625
化学	-10.1634
超え	-10.1634
自宅	-10.1636
を維持し	-10.1638
ていきます	-10.1653
ライブ	-10.1668
置きます	-10.1698
を清掃する	-10.17
職人	-10.1702
いること	-10.1703
始めて	-10.1721
を開始し	-10.1722
固	-10.173
ある種の	-10.1741
飾	-10.1746
必要とされる	-10.1749
落ちる	-10.1752
静	-10.1764
ルーム	-10.1784
利用可能	-10.1795
誰が	-10.1816
せず	-10.1819
を組み合わせる	-10.1825
あなたのために	-10.1827
不快	-10.1828
純粋	-10.1829
遠	-10.1838
段	-10.1843
換	-10.1845
残っている	-10.1846
に頼る	-10.1847
ネイル	-10.1851
納	-10.1852
案	-10.1852
千	-10.1852
膜	-10.1852
ワン	-10.1852
化石燃料	-10.1852
ボランティア	-10.1853
真珠	-10.1853
ギャップ	-10.1853
を確立する	-10.1853
を判断する	-10.1853
腕	-10.1853
芽	-10.1853
請	-10.1853
スナップ	-10.1853
シャンプー	-10.1853
オペレータ	-10.1853
プレーヤー	-10.1853
スケール	-10.1853
引っ張る	-10.1853
を生み出す	-10.1853
染料	-10.1854
現時点で	-10.1854
アップデート	-10.1854
寝室	-10.1854
共通	-10.1854
観客	-10.1854
日常生活	-10.1854
妊娠中の女性	-10.1854
石炭	-10.1855
上映	-10.1855
掃除機	-10.1855
文字通り	-10.1855
交通	-10.1856
プラグ	-10.1857
借り	-10.1858
中毒	-10.1858
を持っていて	-10.1858
クラブ	-10.1858
ヘル	-10.186
ソン	-10.186
アプリ	-10.1861
カテゴリー	-10.1861
真実	-10.1862
学んだ	-10.1863
たいと思ってい	-10.1864
を作り出し	-10.1866
もあり	-10.1867
ワイヤー	-10.1868
体積	-10.187
クランプ	-10.1871
正常に	-10.1873
性格	-10.1874
つつ	-10.1875
を必要とするでしょう	-10.1877
スタイリッシュな	-10.1878
開示	-10.1879
を加え	-10.1883
速い	-10.1886
透明な	-10.1886
メン	-10.1891
バンド	-10.1893
に関連し	-10.1898
になってい	-10.19
に関する問題	-10.1901
効率的な	-10.1901
を使用できます	-10.1902
得られ	-10.1906
可能性があるため	-10.1912
を使用した	-10.1912
生きる	-10.1925
ごとに	-10.1934
ルート	-10.1943
知られ	-10.1949
を保持する	-10.1955
をすばやく	-10.1955
再度	-10.1972
室内	-10.1973
に戻り	-10.1979
を与えることができます	-10.1982
目的で	-10.2028
医学	-10.2053
あなたのお気に入りの	-10.2055
服用	-10.2061
▁このため	-10.2061
開く	-10.2069
められ	-10.2073
配置されている	-10.2086
破	-10.2098
代わりに	-10.2114
ことをお勧めし	-10.2119
メーター	-10.2124
受け	-10.2126
ハン	-10.2149
準備ができて	-10.2157
書く	-10.2158
無料で	-10.216
務	-10.216
初期	-10.2161
統	-10.2161
題	-10.2163
に参加し	-10.2164
に適した	-10.2165
太	-10.2165
ステアリングホイール	-10.2165
競争	-10.2165
ピストン	-10.2165
フォーラム	-10.2165
まつげ	-10.2165
スキップ	-10.2165
ダイエット	-10.2165
悪意のある	-10.2165
西	-10.2165
沸騰させ	-10.2165
洗練された	-10.2165
スケジュール	-10.2165
スタイリスト	-10.2165
ストローク	-10.2165
ボルト	-10.2165
にわたって	-10.2165
マニュアル	-10.2165
超音波	-10.2165
カメラ	-10.2165
を切り取る	-10.2165
フォーク	-10.2165
ノートパソコン	-10.2165
腫瘍	-10.2165
識別	-10.2165
香りのよい	-10.2165
を選び	-10.2165
放棄	-10.2165
を除いて	-10.2165
財産	-10.2166
に向けて	-10.2166
台湾	-10.2166
結び	-10.2166
限られ	-10.2166
録音	-10.2166
東京	-10.2166
伸び	-10.2166
を用いて	-10.2166
言及	-10.2167
ラインストーン	-10.2168
金額	-10.2168
バックアップ	-10.2168
初期化	-10.217
車輪	-10.217
バイブレーター	-10.2171
ロマンチックな	-10.2172
モノ	-10.2173
長年	-10.2174
と比較して	-10.2181
上がり	-10.2181
会う	-10.2185
いただき	-10.2188
リーフ	-10.2188
させるために	-10.2189
キット	-10.2191
すべてのもの	-10.2195
食物	-10.2195
検出	-10.2197
ことにした場合	-10.2199
をクリックする	-10.2212
を使用するとき	-10.2212
を必要とし	-10.2212
受け入れられ	-10.2224
あること	-10.2231
に置く	-10.2236
を服用し	-10.224
調理された	-10.2247
を挿入する	-10.2256
を創造する	-10.2277
を作成します	-10.2278
を集め	-10.2291
含まれている	-10.2296
することなく	-10.2298
形成された	-10.2308
の形の	-10.2336
同意する	-10.2337
リム	-10.2347
ファイ	-10.2365
していること	-10.2366
持って	-10.2371
すばやく	-10.238
している場合は	-10.2381
トル	-10.2401
形式で	-10.2402
タイル	-10.2413
きのこ	-10.2424
彼ら自身	-10.2426
を超えて	-10.243
完成	-10.2436
を考える	-10.2437
を回避する	-10.2439
座って	-10.2439
するべきです	-10.2445
像	-10.2454
少なく	-10.2464
覆	-10.2468
表示されている	-10.247
それについて	-10.2473
するのが良いです	-10.2473
共	-10.2477
旅	-10.2484
反	-10.2484
必要とする	-10.2485
説	-10.2485
武	-10.2485
勝	-10.2485
虫	-10.2486
緩	-10.2486
略	-10.2487
ミキサー	-10.2487
慰安婦	-10.2487
官	-10.2488
電話機	-10.2488
館	-10.2488
ガールフレンド	-10.2488
を拒否し	-10.2488
ウィザード	-10.2488
ピストル	-10.2488
スパンコール	-10.2488
プロパティ	-10.2488
寺院	-10.2488
騒	-10.2488
シェード	-10.2488
極端な	-10.2488
ちょうど	-10.2488
ドキュメント	-10.2488
急速な	-10.2488
詰め物	-10.2488
細かく	-10.2488
副作用	-10.2488
注射	-10.2488
はじめ	-10.2488
を無視し	-10.2488
乾いた	-10.2488
ワークショップ	-10.2488
遊ぶ	-10.2489
損害	-10.2489
衣服	-10.2489
散歩	-10.2489
微生物	-10.2489
関与	-10.2489
であっても	-10.2489
マーケット	-10.2489
間違って	-10.2489
断片	-10.2491
屋根	-10.2491
ローカル	-10.2492
湿度	-10.2492
サーバ	-10.2492
法的	-10.2493
プラスター	-10.2493
ヘア	-10.2493
基本的に	-10.2496
起こった	-10.2496
ハング	-10.2497
一定の	-10.2499
個人的に	-10.2501
グリーン	-10.2508
有害な	-10.2509
用語	-10.2509
長時間	-10.2511
ハンド	-10.2511
薄く	-10.2516
不足	-10.2518
学び	-10.2521
に従ってください	-10.2521
彼らは彼ら	-10.2522
出来	-10.2525
ラベル	-10.253
見える	-10.253
比較的	-10.253
感情的な	-10.2532
急性	-10.2533
を服用する	-10.2537
を喜ばせる	-10.2538
を知らない	-10.2541
人気があり	-10.2554
酸化	-10.2563
ひも	-10.2564
上にある	-10.2572
厚く	-10.2578
医	-10.2584
を取得し	-10.2589
いつ	-10.2611
監視	-10.2621
製造元	-10.2624
準備された	-10.2625
を送信する	-10.2631
を達成するために	-10.2633
レベルで	-10.2645
を排除し	-10.2649
トン	-10.265
どこか	-10.2656
強調表示	-10.2657
に直面し	-10.2669
されるべきである	-10.2672
魅力的で	-10.2674
を見ることができます	-10.2686
が発生した場合	-10.2709
を保証する	-10.2711
成長している	-10.2714
ようとしています	-10.2735
しまう	-10.2742
観察	-10.2745
を共有し	-10.2764
ニア	-10.2766
渡し	-10.2769
を配置する	-10.2773
っていて	-10.2781
背	-10.2787
する可能性があります	-10.2793
必要がある場合は	-10.2804
に取り付けられ	-10.2805
展	-10.2808
香	-10.2811
があるでしょう	-10.2812
植	-10.2813
袋	-10.2814
を注ぎ	-10.2815
を固定し	-10.2817
鶏	-10.2818
エンド	-10.2818
査	-10.282
載	-10.282
席	-10.282
脂	-10.282
居	-10.2821
』	-10.2821
キーワード	-10.2821
敬	-10.2821
クラッチ	-10.2821
ステンシル	-10.2821
ダイニングルーム	-10.2821
ことを願っています	-10.2821
アクリル	-10.2821
礼	-10.2821
周波数	-10.2821
定期的な	-10.2821
忘れられない	-10.2821
町	-10.2821
良好な	-10.2821
孔	-10.2821
弾力性	-10.2821
急激な	-10.2821
穏やかで	-10.2821
キュー	-10.2821
裁判所	-10.2821
ちょっと	-10.2821
の徴候	-10.2821
何人かの	-10.2821
凝縮	-10.2821
煮	-10.2821
嫌	-10.2821
がたくさんあります	-10.2821
姿勢	-10.2821
運営	-10.2821
代替	-10.2821
髪の毛	-10.2822
ことが望ましいです	-10.2822
公共	-10.2822
トラブル	-10.2822
到着	-10.2822
打ち	-10.2822
願望	-10.2823
遊び	-10.2823
キャッシュ	-10.2824
文字列	-10.2825
日常	-10.2825
ことが判明した	-10.2825
ひげ	-10.2825
酸素	-10.2826
を通って	-10.2828
分か	-10.2831
ベリー	-10.2832
ノック	-10.2832
個性	-10.2832
メモ	-10.2833
構成要素	-10.2834
によるものです	-10.2834
費やされ	-10.2836
フィルター	-10.2839
レコード	-10.284
しばらくの間	-10.2842
乳製品	-10.2842
顕著な	-10.2844
起き	-10.2846
を提供しています	-10.2855
この種の	-10.2868
を利用し	-10.2868
を知る必要があります	-10.2868
ために必要な	-10.2873
を理解しています	-10.2886
しております	-10.2897
数日	-10.2899
ているため	-10.2901
てしまう	-10.2906
を入れて	-10.2911
成人	-10.2917
がわか	-10.2922
を獲得する	-10.2932
していく	-10.2933
を追加します	-10.2934
シャー	-10.2943
が現れる	-10.2956
これから	-10.2962
このサイト	-10.2978
健康な	-10.2987
子供のための	-10.2993
に進む	-10.3013
ここ	-10.3015
下げ	-10.3029
になる可能性があります	-10.3031
ープ	-10.3055
で構成されてい	-10.306
みましょう	-10.3079
込んで	-10.3096
避	-10.3108
かを理解	-10.313
していました	-10.313
ようとする	-10.3137
不可能な	-10.3138
に追加され	-10.314
顕著	-10.3143
をダウンロードする	-10.3149
敏感	-10.315
予	-10.3152
お勧めします	-10.3154
べ	-10.3155
カテゴリ	-10.3156
態	-10.3159
証	-10.3159
域	-10.3162
脈	-10.3162
炭	-10.3163
充	-10.3164
住んでいる	-10.3164
閉	-10.3164
構	-10.3164
治	-10.3164
囲	-10.3165
算	-10.3165
撮	-10.3165
ソフト	-10.3165
一般に	-10.3165
膨大な	-10.3166
『	-10.3166
派	-10.3166
劇	-10.3166
ベトナム	-10.3166
ライセンス	-10.3166
グローバル	-10.3166
村	-10.3166
陸	-10.3166
イタリア	-10.3166
微妙な	-10.3166
杭	-10.3166
ガレージ	-10.3166
ハウジング	-10.3166
編み物	-10.3166
に連絡して	-10.3166
カプチーノ	-10.3166
ラジエータ	-10.3166
湖	-10.3166
ことがわかりました	-10.3166
化合物	-10.3166
栗	-10.3166
注意深く	-10.3166
潜在的な	-10.3166
調味料	-10.3166
カッター	-10.3166
バレル	-10.3166
コンソール	-10.3166
フォント	-10.3166
何らかの理由で	-10.3166
観点から	-10.3166
ふわふわ	-10.3166
アルゴリズム	-10.3166
ブレーキ	-10.3166
エンジニア	-10.3166
棚	-10.3166
才能	-10.3166
別々の	-10.3166
面白く	-10.3166
リズム	-10.3166
取り組んで	-10.3166
境界	-10.3166
を占め	-10.3166
プラスチック製の	-10.3166
夕食	-10.3167
業務	-10.3167
ペイント	-10.3167
約束	-10.3167
消毒	-10.3167
わからない	-10.3167
静止	-10.3167
所望の	-10.3167
忍耐力	-10.3167
排水	-10.3168
テクノロジー	-10.3169
内蔵	-10.3169
アレルギー反応	-10.3169
食料	-10.317
配布	-10.3172
オーバー	-10.3173
誤った	-10.3175
手作り	-10.3177
立場	-10.3178
クリップ	-10.3179
団体	-10.3183
光線	-10.3187
振り	-10.3189
有効性	-10.3197
事前	-10.3199
をきれいにする	-10.3199
高価で	-10.32
教える	-10.3217
を実行します	-10.3218
知られています	-10.3224
一見	-10.3224
冷や	-10.3224
を知って	-10.3225
なかったので	-10.324
離れて	-10.3255
疑い	-10.3262
が発生する可能性があります	-10.3262
レス	-10.3263
が必要になり	-10.3273
オプションがあります	-10.3273
を実行し	-10.3305
しようとしている	-10.3307
冬に	-10.3321
喜んで	-10.3325
を明らかにし	-10.3325
ことを確認し	-10.333
チャット	-10.3332
短く	-10.3356
▁もし	-10.3366
考慮に入れ	-10.3366
最も重要な	-10.3377
を向上させる	-10.338
を実行するために	-10.3381
ノー	-10.3416
それを取り除く	-10.3439
長期	-10.3457
発生する	-10.3465
始めることができます	-10.3469
笑	-10.3469
順番に	-10.3476
一般的	-10.3477
なりました	-10.3481
置かれ	-10.3499
豊富	-10.35
有害	-10.3507
バッテリ	-10.3513
サイクル	-10.3517
推	-10.3519
切り替え	-10.352
遊	-10.352
子ども	-10.352
階	-10.3522
賛	-10.3522
糖	-10.3522
ユ	-10.3522
肝	-10.3523
松	-10.3523
当法人	-10.3523
膨	-10.3523
僕	-10.3523
華	-10.3523
ユーモア	-10.3523
ブレンダー	-10.3523
志	-10.3523
春	-10.3523
秋	-10.3523
という意味ではありません	-10.3523
ユニバーサル	-10.3523
不動産	-10.3523
最適化	-10.3523
診療所	-10.3523
闘	-10.3523
迫	-10.3523
カスタマー	-10.3523
シリーズ	-10.3523
恐怖	-10.3523
特殊な	-10.3523
を結ぶ	-10.3523
戦争	-10.3523
万	-10.3523
治癒	-10.3523
ダイオードブリッジ	-10.3523
冷凍	-10.3523
を保つ	-10.3524
脚注	-10.3524
ことがより良いです	-10.3524
世帯	-10.3524
と組み合わせて	-10.3524
ビジョン	-10.3524
奪われ	-10.3524
お粥	-10.3524
もう一方	-10.3524
排出	-10.3525
何をすべきか	-10.3525
結果として生じる	-10.3525
が得られます	-10.3525
武器	-10.3526
ヘアスタイル	-10.3526
ポーズ	-10.3529
媒体	-10.3529
洗剤	-10.3529
発達	-10.3529
そば	-10.353
デート	-10.3532
検索エンジン	-10.3533
関数	-10.3533
悪く	-10.3534
に変える	-10.3535
し始めます	-10.3538
増え	-10.3541
サイン	-10.3545
を悪化させ	-10.3546
くらい	-10.3546
る可能性があります	-10.3558
ドライバー	-10.3558
を観察する	-10.3563
シール	-10.3564
に加え	-10.3571
強調	-10.3573
を妨げる	-10.3583
特徴的な	-10.36
再起動する	-10.3602
だけではありません	-10.3603
を追加することができます	-10.3603
から保護する	-10.3604
必要な場合は	-10.361
を訪問する	-10.3615
レーザー	-10.3628
してくれ	-10.364
失敗した	-10.3649
を台無しにし	-10.3651
ニック	-10.3656
大量	-10.366
縫い	-10.366
ステップバイステップ	-10.3662
成果	-10.3667
を保存する	-10.3671
最高	-10.3676
残っています	-10.3681
を表示する	-10.3682
を試して	-10.3703
を忘れないでください	-10.3704
リード	-10.3707
レーション	-10.3711
調べ	-10.3717
留め	-10.3725
表示されます	-10.3728
開け	-10.3729
から始めて	-10.373
ことは重要です	-10.3746
なしの	-10.375
ブリ	-10.3755
を開発する	-10.3759
ないようにするために	-10.3759
されず	-10.376
違	-10.3781
分け	-10.3786
疑	-10.379
のが簡単	-10.3795
ママ	-10.3796
に追加する	-10.3803
を妨げ	-10.3831
開いた	-10.3835
望んでいる	-10.3842
あなた自身の手	-10.3854
限	-10.3857
使用することができる	-10.3861
に設置され	-10.3875
吸収する	-10.3876
注	-10.388
融	-10.3889
商	-10.3891
延	-10.3891
拾	-10.3893
故	-10.3893
刺	-10.3893
親密な	-10.3893
酔	-10.3893
キャビネット	-10.3893
プロフィール	-10.3893
ジュエリー	-10.3893
何らかの	-10.3893
炭水化物	-10.3893
ブラジル	-10.3893
秘	-10.3893
銅	-10.3893
キャンドル	-10.3893
モダンな	-10.3893
ヨウ素	-10.3893
婚約指輪	-10.3893
膝	-10.3893
蝶	-10.3893
アーユルヴェーダ	-10.3893
インターフェース	-10.3893
シーズン	-10.3893
不可欠な	-10.3893
腔	-10.3893
アンチウイルス	-10.3893
エナメル	-10.3893
クリエイティブ	-10.3893
害を及ぼす	-10.3893
ストーリー	-10.3893
タイミング	-10.3893
ご注意ください	-10.3893
に基づく	-10.3893
マヨネーズ	-10.3893
サンドイッチ	-10.3893
老	-10.3893
手のひら	-10.3893
キューティクル	-10.3893
聞こえ	-10.3893
入り口	-10.3893
重大な	-10.3893
滑らかで	-10.3894
と戦う	-10.3894
は何ですか	-10.3894
つもり	-10.3894
ずっと	-10.3894
衛星	-10.3894
信頼性の高い	-10.3894
を使用せずに	-10.3894
ステージ	-10.3894
▁それ以外の場合	-10.3894
カウンタートップ	-10.3894
を押す	-10.3894
消去	-10.3894
の底部	-10.3894
コテージチーズ	-10.3894
請求書	-10.3894
予備	-10.3894
運命	-10.3895
学習	-10.3895
重度の	-10.3895
主題	-10.3895
両側	-10.3895
飛び	-10.3895
寒さ	-10.3896
受容	-10.3896
臭い	-10.3896
証明書	-10.3897
を探す	-10.3898
お菓子	-10.3898
しわ	-10.3898
リンゴ	-10.3899
ストランド	-10.3899
活性	-10.3899
音声	-10.3899
を持っていません	-10.3899
栄養素	-10.3899
スパイ	-10.39
たいという	-10.39
平和	-10.39
運用	-10.3901
想像力	-10.3902
トレース	-10.3903
例外	-10.3907
▁事実は	-10.3907
作動	-10.3907
湿らせ	-10.3909
活性化	-10.391
を乾燥させ	-10.391
ほか	-10.391
人類	-10.3911
に接続し	-10.3912
クールな	-10.3913
立っている	-10.3919
絞り	-10.3921
を得ること	-10.3923
こうした	-10.3923
経済的	-10.3925
出口	-10.3934
を調べる	-10.3936
日本人	-10.394
ほとんど不可能	-10.3942
へのリンク	-10.3943
さまざまな方法で	-10.3944
青い	-10.396
を構築する	-10.3963
動かし	-10.3963
を失うこと	-10.3971
見つけることができる	-10.3974
まとめ	-10.3992
えてい	-10.3996
を使用します	-10.4009
可能である	-10.4022
彼の人生	-10.4024
さえも	-10.4035
を起こし	-10.4045
生じ	-10.4055
取り入れ	-10.4067
合わせる	-10.4086
価値がない	-10.4088
を使用している	-10.4099
てくる	-10.4107
影響を与える	-10.4118
を訪れ	-10.4126
ろう	-10.4133
上記	-10.4134
ローン	-10.4144
見つけ	-10.4149
折	-10.4188
することを可能にします	-10.4193
やかな	-10.4194
と考えています	-10.4196
移動する	-10.4197
ペル	-10.4204
化学的	-10.4215
し始める	-10.4217
に入って	-10.4218
を見つけること	-10.4222
インター	-10.4226
不十分	-10.4245
この手順	-10.4247
ユニーク	-10.4255
モニタ	-10.4268
便	-10.4273
ソーシャル	-10.4274
編	-10.4275
教えてください	-10.4276
必要なもの	-10.4276
確信してい	-10.4277
並	-10.4277
餌	-10.4278
了	-10.4278
雑	-10.4278
ひどい	-10.4278
委員会	-10.4278
裁	-10.4278
司	-10.4278
栽	-10.4278
を含める	-10.4278
エッセンシャルオイル	-10.4278
霊	-10.4278
モデリング	-10.4278
物理的な	-10.4278
キャップ	-10.4278
レジストリ	-10.4278
好ましい	-10.4278
望むならば	-10.4278
スノーフレーク	-10.4278
タバコ	-10.4278
トリミング	-10.4278
辞	-10.4278
ドロップ	-10.4278
最小限の	-10.4278
麻	-10.4278
を確保する	-10.4278
プログラミング	-10.4278
スイッチ	-10.4278
淡	-10.4278
パルス	-10.4278
著しく	-10.4278
セラミック	-10.4278
傑作	-10.4278
閉鎖	-10.4278
見つかり	-10.4278
ことがわかります	-10.4278
持続	-10.4278
を特定する	-10.4278
ドリル	-10.4278
終わる	-10.4278
証拠	-10.4278
病院	-10.4278
救済策	-10.4278
鮮やかな	-10.4278
クラシック	-10.4279
賞賛	-10.4279
延期	-10.4279
父親	-10.428
金融	-10.428
創傷	-10.428
盛り	-10.4281
の発症	-10.4281
ように設計され	-10.4281
ミックス	-10.4283
折り紙	-10.4284
吸入	-10.4285
長期的な	-10.4289
テーブルの上に	-10.4289
水銀	-10.4289
▁当社は	-10.4295
燃	-10.4303
コイン	-10.4308
追い	-10.431
の近くに	-10.431
感度	-10.4311
安全性	-10.4313
望み	-10.4317
最も単純な	-10.4317
それ自身	-10.4339
そのまま	-10.4344
に影響を与えます	-10.4349
身体的	-10.435
を決める	-10.4351
を理解する必要があります	-10.4354
折り	-10.4357
出発	-10.4357
を見つけるでしょう	-10.4359
かつて	-10.436
選ぶ	-10.4364
を使用しています	-10.4365
なのです	-10.4381
族	-10.4389
を選ぶことができます	-10.4397
今すぐ	-10.4398
簡単ではありません	-10.441
にやってくる	-10.4411
に違反し	-10.4449
を除去し	-10.445
この技術	-10.4453
作者	-10.4462
ティック	-10.448
に参加する	-10.4483
談	-10.4483
増加し	-10.4484
することは不可能です	-10.4488
腫	-10.4512
を接着する	-10.4522
使用できる	-10.4533
罰	-10.456
理解でき	-10.4569
ピース	-10.4602
を製造する	-10.4605
焼	-10.461
を取り除く方法	-10.4612
ていないので	-10.4638
を引き起こす可能性がある	-10.4641
ポリ	-10.4642
絞	-10.4648
合計	-10.4649
ブライン	-10.4651
隠れ	-10.4661
実行する必要があります	-10.4661
検	-10.4662
息	-10.4673
世	-10.4674
門	-10.4675
沢	-10.4675
述	-10.4676
凍	-10.4676
削	-10.4676
父	-10.4676
メーカー	-10.4677
切り取り	-10.4677
担	-10.4677
湾	-10.4677
園	-10.4677
税	-10.4677
スキン	-10.4677
茎	-10.4678
陰	-10.4678
沈	-10.4678
犯	-10.4678
第三者	-10.4678
溝	-10.4678
掲載	-10.4678
盾	-10.4678
隊	-10.4678
洗い流す	-10.4678
の喪失	-10.4678
スパイラル	-10.4678
灯	-10.4678
獣	-10.4678
紛争	-10.4678
スクリプト	-10.4678
ネーション	-10.4678
堅	-10.4678
好奇心	-10.4678
を含みます	-10.4678
ココア	-10.4678
ファサード	-10.4678
カスタマイズ	-10.4678
パワー	-10.4678
始まります	-10.4678
タクシー	-10.4678
低炭素	-10.4678
慎重な	-10.4678
追求	-10.4678
キラキラ	-10.4678
シャフト	-10.4678
平らな	-10.4678
怪我を	-10.4678
有能な	-10.4678
”	-10.4678
いわゆる	-10.4678
サイディング	-10.4678
ステッチ	-10.4678
トイレ	-10.4678
マイクロフォン	-10.4678
壮大な	-10.4678
婦	-10.4678
把	-10.4678
一時的な	-10.4678
高度な	-10.4678
スモークハウス	-10.4678
エディタ	-10.4678
危機	-10.4678
ワークピース	-10.4679
摂取	-10.4679
肺炎	-10.4679
教師	-10.4679
支配	-10.468
オファー	-10.468
仲間	-10.468
もらう	-10.468
宝石	-10.468
誤動作	-10.468
思考	-10.468
に記載されている	-10.468
地殻	-10.468
点滅	-10.4681
無限	-10.4681
フィレット	-10.4681
広がり	-10.4681
分類	-10.4681
安心	-10.4681
スライダ	-10.4682
ってきた	-10.4682
血圧	-10.4683
有料	-10.4683
ピザ	-10.4683
牛肉	-10.4683
ポスター	-10.4684
採用	-10.4685
ことが可能になり	-10.4686
将来の母親	-10.4687
を視覚的に	-10.4689
メッシュ	-10.4689
最も人気のある	-10.469
過熱	-10.4692
試合	-10.4695
パック	-10.4697
くなっ	-10.4697
を利用する	-10.4698
タスクバー	-10.4699
を認識し	-10.47
かかり	-10.47
混ぜ合わせ	-10.47
ことを覚えておく	-10.4703
無線	-10.4704
すべき	-10.4704
精神的な	-10.4706
とのコミュニケーション	-10.4706
お祝いのテーブル	-10.4709
を考慮して	-10.4712
できた	-10.4712
に依存します	-10.4713
最も簡単	-10.4719
そのような状況	-10.472
だけではなく	-10.4722
ことは可能です	-10.4726
より速く	-10.4728
を強調する	-10.4732
を選択でき	-10.4758
コンピュータ上の	-10.4761
との関係	-10.4774
続き	-10.4779
本体	-10.4816
を確認してください	-10.4818
あった	-10.4818
壊れた	-10.4819
を保存し	-10.482
を引き起こさない	-10.4821
てきました	-10.4866
驚くべき	-10.4875
を認識する	-10.4876
回転させる	-10.4889
があるかもしれません	-10.4895
を入手する	-10.4908
読む	-10.4909
安	-10.4919
について話している	-10.4944
ベイ	-10.4959
ことを好む	-10.4971
消し	-10.4976
あるため	-10.4976
だと思います	-10.4993
加速	-10.4994
飛	-10.4996
聞いて	-10.5004
触れる	-10.5021
ことを示しています	-10.5029
を愛し	-10.5057
焼き付け	-10.5058
滑	-10.5063
携帯	-10.5072
新鮮	-10.5074
狭	-10.5074
有名	-10.5076
助	-10.5076
ンダー	-10.5077
弾	-10.5083
ャ	-10.5084
湯	-10.5085
標	-10.5086
障	-10.509
ジョ	-10.5091
滅	-10.5091
ストレッチ	-10.5092
宝	-10.5092
に入れて	-10.5092
ディーゼル	-10.5094
促	-10.5094
ウェア	-10.5094
郵便	-10.5094
タオル	-10.5094
救済	-10.5094
履	-10.5095
縛	-10.5095
ヘッダ	-10.5095
貴	-10.5095
どういうわけか	-10.5095
に含まれる	-10.5095
ズボン	-10.5095
岩	-10.5095
省	-10.5095
総	-10.5095
買い手	-10.5095
ぬ	-10.5095
に依存する	-10.5095
アニメーション	-10.5095
ドラゴン	-10.5095
パーソナル	-10.5095
ことに留意されたい	-10.5095
を拒否する	-10.5095
カルシウム	-10.5095
マウント	-10.5095
信じられないほど	-10.5095
均質な	-10.5095
スターリングエンジン	-10.5095
三角形	-10.5095
塗りつぶし	-10.5095
不思議	-10.5095
柑橘類	-10.5095
正確さ	-10.5095
虚	-10.5095
パッチ	-10.5095
幾何学的	-10.5095
ステーション	-10.5095
豚肉の耳	-10.5095
パーティション	-10.5095
疑問	-10.5095
資源	-10.5095
スクロール	-10.5095
コンテナ	-10.5095
選ばれ	-10.5095
シルク	-10.5095
を待つ	-10.5095
ことを目的としてい	-10.5095
を覆う	-10.5095
ことがわかった	-10.5095
にアクセスする	-10.5095
風景	-10.5096
少女	-10.5096
最大限	-10.5096
事件	-10.5096
加工	-10.5096
運ぶ	-10.5096
配達	-10.5097
寄付	-10.5097
住所	-10.5098
子どもたち	-10.5098
限定	-10.5098
食材	-10.5098
パン粉	-10.5098
エントリ	-10.5098
プレイヤー	-10.5098
織物	-10.5099
オレンジ色の	-10.5099
鶏肉	-10.5099
開かれ	-10.5099
起こらない	-10.5099
いただく	-10.5099
野生	-10.51
分散	-10.51
屋外	-10.51
優先	-10.51
お茶	-10.51
薬局	-10.5101
怒	-10.5101
リサイクル	-10.5101
出てくる	-10.5103
脇の下	-10.5103
最低	-10.5104
熱帯	-10.5104
視点	-10.5105
キャスト	-10.5106
試してみる	-10.5106
弾性	-10.5107
メールマーケティング	-10.5108
をオンにし	-10.5108
バナー	-10.511
分布	-10.511
美味しくて	-10.5111
日々	-10.5112
興味のある	-10.5116
を塗る	-10.5116
発作	-10.5119
重要である	-10.5125
丸い	-10.5126
滑り	-10.5127
置く	-10.5132
を減らすために	-10.5137
を切って	-10.5138
コミ	-10.5146
を提供すること	-10.515
を作成するための	-10.5152
インターネット接続	-10.5153
細い	-10.5164
可能であれば	-10.517
をダウンロードし	-10.5171
ままです	-10.5174
言った	-10.5175
降り	-10.5176
できない場合	-10.5181
に興味がある	-10.5206
女の子のための	-10.5213
技術的	-10.5219
たいと思う	-10.5222
なくなる	-10.5228
芸術家	-10.5231
多数	-10.5235
飾る	-10.5235
の下にある	-10.5235
分かり	-10.5245
を有し	-10.5255
より高い	-10.5269
てくれる	-10.528
を分析し	-10.5291
を刺激する	-10.5313
友	-10.5317
再インストール	-10.5325
全体として	-10.5335
多くの人々	-10.5338
を考慮し	-10.5341
するのが良い	-10.5359
ことは不可能	-10.5364
続いて	-10.5369
遅い	-10.5388
をかけて	-10.5388
を持つ人々	-10.5389
をクリックします	-10.5409
ないようにしてください	-10.5425
呼ばれ	-10.5438
傾	-10.5443
をきれいにし	-10.5458
主要	-10.5459
を洗浄する	-10.5466
性別	-10.5486
ダニ	-10.5491
スタイリッシュ	-10.5493
実用的	-10.5506
手配	-10.5506
毎	-10.552
慢性	-10.5524
複	-10.5525
拠	-10.5526
準	-10.5527
ことが起こり	-10.5527
肺	-10.5529
クレジット	-10.5529
ニックネーム	-10.5529
プリント	-10.5529
を遵守する	-10.5529
オウム	-10.5529
シナリオ	-10.5529
リゾート	-10.5529
不正行為	-10.5529
就	-10.5529
糖尿病	-10.5529
スタンプ	-10.5529
バケツ	-10.5529
婦人科医	-10.5529
アンモニア	-10.5529
気づいた	-10.5529
コントラスト	-10.5529
カリウム	-10.5529
トリュフ	-10.5529
加湿器	-10.5529
橋	-10.5529
ブックマーク	-10.5529
に貢献し	-10.5529
シーケンス	-10.5529
スラッシュ	-10.5529
引っ張って	-10.5529
トラクター	-10.5529
アクセント	-10.553
富	-10.553
紫	-10.553
英雄	-10.553
プライバシー	-10.553
スリーブ	-10.553
推測	-10.553
肥料	-10.553
宣言	-10.553
コントローラ	-10.553
休息	-10.553
タッチパッド	-10.553
錠剤	-10.553
眠りに落ちる	-10.553
ことはほとんどありません	-10.553
連携	-10.553
早期	-10.5531
激しい	-10.5531
ポリマー	-10.5531
粘着	-10.5531
伝達	-10.5531
荷重	-10.5531
簡単な方法	-10.5531
起源	-10.5531
化学物質	-10.5532
一種の	-10.5532
永遠に	-10.5532
ロシア語	-10.5533
縮小	-10.5534
シャツ	-10.5534
顔料	-10.5534
過負荷	-10.5534
補正	-10.5535
開いている	-10.5535
織り	-10.5536
シリアル	-10.5537
増加する	-10.5538
収入	-10.5538
マイクロ	-10.5538
を最小限に抑える	-10.5538
拡張子	-10.5539
ジョー	-10.554
らせる	-10.554
国民	-10.554
二重	-10.554
髪型	-10.5541
ではない場合	-10.5542
発信	-10.5542
両方	-10.5544
方法を知っています	-10.5546
硬い	-10.5547
ことができれば	-10.5548
の残りの部分	-10.5549
重要であり	-10.5549
ようとします	-10.5551
実用的な	-10.5553
質感	-10.5554
植物油	-10.5554
書いた	-10.5554
目的地	-10.5555
クール	-10.5556
属性	-10.5556
たくない場合は	-10.5557
を中心に	-10.5557
心理	-10.5559
なければならないでしょう	-10.5559
大型	-10.556
それ以外	-10.5564
ネジ	-10.557
治療法	-10.557
を計算する	-10.5584
を置いて	-10.5587
張り	-10.5589
っている場合	-10.5591
笑い	-10.5593
に苦しんでい	-10.5605
ノート	-10.5608
保存され	-10.5628
を発見し	-10.5636
読んでください	-10.5637
に置いて	-10.5664
ていき	-10.567
知人	-10.5674
を決定するために	-10.5678
水中	-10.5681
避け	-10.5687
を驚かせ	-10.5694
を作って	-10.5719
を押して	-10.5731
てみてください	-10.5737
それらのいくつか	-10.5741
去る	-10.5744
されていて	-10.5744
準備をし	-10.5754
落とし	-10.5763
驚くべきこと	-10.5764
最新	-10.5785
優しい	-10.5803
縫	-10.5804
を説明する	-10.581
の周り	-10.5823
の製造のために	-10.5838
使われる	-10.5861
同様に	-10.5865
を置き換える	-10.5867
と組み合わせる	-10.5881
を検索する	-10.5894
早	-10.5926
面積	-10.5936
困難であり	-10.5959
ほ	-10.5959
対話	-10.5963
著	-10.5964
電話番号	-10.5966
巻	-10.5971
欲	-10.5979
完	-10.5981
胆	-10.5982
護	-10.5983
警	-10.5983
舞	-10.5983
港	-10.5983
辺	-10.5984
索	-10.5984
罪	-10.5984
章	-10.5984
県	-10.5984
泳	-10.5984
涙	-10.5984
リーダーシップ	-10.5984
著作権	-10.5984
シナモン	-10.5984
クラウド	-10.5984
アフリカ	-10.5984
泥	-10.5984
震	-10.5984
フラグメント	-10.5984
ドラッグ	-10.5984
ポップアップ	-10.5984
リーシュ	-10.5984
理想的です	-10.5984
アセトン	-10.5984
心地よい	-10.5984
痕	-10.5984
一時的に	-10.5984
りんご	-10.5984
ネクタイ	-10.5984
疑わしい	-10.5984
均等に	-10.5984
を軽減する	-10.5984
ナゲット	-10.5984
リリース	-10.5984
当てはまり	-10.5984
クーラー	-10.5984
幸運	-10.5984
雑誌	-10.5984
時間がかかる	-10.5984
締結	-10.5984
は必要ありません	-10.5984
たいという願望	-10.5985
スクリーンショット	-10.5985
と信じています	-10.5985
関税	-10.5985
ドライクリーニング	-10.5985
趣味	-10.5985
ディーゼル燃料	-10.5985
政治	-10.5985
たびに	-10.5985
駆動	-10.5986
欲しい	-10.5986
をお願い	-10.5986
重複	-10.5986
設備	-10.5986
毎回	-10.5987
センサー	-10.5987
踏み	-10.5987
について説明します	-10.5987
を接続し	-10.5987
毎年	-10.5987
融合	-10.5987
逃げ	-10.5988
厳しい	-10.5988
を選んで	-10.5988
を返す	-10.5988
介入	-10.5988
硬化	-10.5989
不便	-10.5989
汚染物質	-10.5989
に変わります	-10.599
結び目	-10.5992
ようとしている	-10.5993
ソファー	-10.5993
をオフにし	-10.5995
お湯	-10.5995
走行	-10.5995
を評価する	-10.5996
包み	-10.5998
パテ	-10.5998
を持ち上げる	-10.5999
耐性	-10.5999
座っている	-10.6
ワイ	-10.6
イヤー	-10.6001
最終的な	-10.6001
視力	-10.6003
有益な	-10.6004
早い	-10.6004
音量	-10.6005
古く	-10.6007
が可能であり	-10.6008
色調	-10.6016
を台無しにする	-10.6018
当サイト	-10.602
出血	-10.602
眠り	-10.6021
代表者	-10.6035
提供されています	-10.604
変え	-10.6047
を飾ることができます	-10.605
を習得する	-10.6063
人口	-10.6064
レール	-10.6068
開き	-10.6071
軽く	-10.6073
を成長させる	-10.6073
ことにしました	-10.609
を添加する	-10.6101
の大部分	-10.6102
を習得し	-10.6107
受信者	-10.6115
なってい	-10.6115
これを行う	-10.6115
歩いて	-10.613
進み	-10.6132
持つ	-10.6133
置くことができます	-10.6151
を維持するために	-10.6192
かどうかを確認	-10.6201
ようなものです	-10.6208
ハード	-10.6212
を加えて	-10.622
去	-10.6227
国家	-10.6229
を開発し	-10.6229
始める前に	-10.6231
夢見	-10.6233
を切断する	-10.6234
きれい	-10.6241
喜	-10.6241
ことを許可し	-10.6249
という言葉	-10.6256
ふた	-10.6264
見えるように	-10.6269
クロス	-10.628
を明らかにする	-10.6283
訴	-10.6305
世話	-10.6307
ことを計画している	-10.6319
楽しむことができます	-10.6343
今まで	-10.6348
を着用する	-10.6349
祭	-10.6356
ていませんでした	-10.6357
につながる可能性がある	-10.6374
示されています	-10.6375
を喜ばせ	-10.6387
けど	-10.6394
日本映画	-10.6395
を見つけた	-10.6402
理想	-10.6408
異なり	-10.6416
に耐え	-10.6422
に関連しています	-10.6448
終	-10.6455
損	-10.6456
伸	-10.6456
粘	-10.6457
携	-10.6458
照	-10.6458
末	-10.6458
参	-10.6459
察	-10.6459
禁	-10.6459
フィード	-10.646
ショット	-10.646
ペーパー	-10.646
ハウス	-10.646
ホワイト	-10.646
祝	-10.646
前向きな	-10.646
ストリーム	-10.646
イラストレーター	-10.646
労働者	-10.646
ニュースレター	-10.646
モノラル	-10.646
絶え間ない	-10.646
オパール	-10.646
励	-10.646
灌	-10.646
ファッショナブルな	-10.646
飢	-10.646
ジャンプ	-10.646
防腐剤	-10.646
ネイティブ	-10.646
ロボット	-10.646
枕	-10.646
身に着け	-10.646
ギフト	-10.646
馬	-10.646
を整理する	-10.646
寿司	-10.646
お土産	-10.646
フェイス	-10.646
ランダム	-10.646
スペシャリスト	-10.646
モスクワ	-10.646
歓	-10.646
アルコール飲料	-10.646
最後まで	-10.646
頬	-10.646
お知らせ	-10.646
秒	-10.646
キュウリ	-10.646
疲れてい	-10.646
クロスボウ	-10.646
ヴィ	-10.646
排他的	-10.646
ショッピング	-10.646
スリッパ	-10.646
競技	-10.646
企画	-10.646
ように思われる	-10.646
とにかく	-10.646
始まる	-10.646
結び付ける	-10.646
を防ぎ	-10.646
落ち着いて	-10.646
トーク	-10.646
結晶	-10.646
陰茎	-10.646
犯罪	-10.646
を起こす	-10.6461
粘液	-10.6461
招待	-10.6461
居住	-10.6461
補助	-10.6461
統計	-10.6461
サイプレス	-10.6461
フィードバック	-10.6461
ワイヤレス	-10.6461
飛行機	-10.6461
を無効にする	-10.6461
ことは非常に重要です	-10.6461
公園	-10.6461
以来	-10.6462
排気	-10.6462
区画	-10.6462
資質	-10.6462
まさに	-10.6463
工具	-10.6463
違法	-10.6463
済み	-10.6463
左側	-10.6464
私自身	-10.6464
実証	-10.6465
バイオ	-10.6465
荷物	-10.6466
小包	-10.6467
耐久性のある	-10.6468
現場	-10.6468
数分間	-10.6468
慢性的な	-10.6471
システムユニット	-10.6473
地図	-10.6474
病理学的	-10.6474
個人データ	-10.6477
ローター	-10.6479
を組み合わせた	-10.6479
あなたと一緒に	-10.6481
を意味します	-10.6481
安定性	-10.6485
芸術的な	-10.649
浸す	-10.6491
大会	-10.6496
言われ	-10.6497
専門的な	-10.6497
に置き	-10.6507
実行できます	-10.6511
ていない場合	-10.6511
シック	-10.6515
可能性のある	-10.6515
段階的な	-10.6519
をやめ	-10.652
業者	-10.6523
それほど多く	-10.6526
の重要性	-10.6531
ことを望んでい	-10.6531
より複雑な	-10.6539
を割り当てる	-10.6547
を取って	-10.6549
生まれた	-10.6565
観察され	-10.6576
知られている	-10.6589
不十分な	-10.66
きましょう	-10.661
必要ならば	-10.661
を処理する	-10.6615
を追跡する	-10.6621
固定されています	-10.6651
に追加し	-10.6653
を測定する	-10.6654
ベータ	-10.6665
シンク	-10.6668
ライフ	-10.6692
を実現する	-10.6706
を変えること	-10.6727
に入れてください	-10.6744
支え	-10.675
を反映して	-10.6752
を管理する	-10.676
塗り	-10.6774
高くなります	-10.6776
執	-10.678
ことができず	-10.6783
発生する可能性があります	-10.6831
にさらされ	-10.6854
水平	-10.6865
を訪問し	-10.6873
促進	-10.6876
を着る	-10.6894
取り除き	-10.6897
学ぶことができます	-10.6925
立って	-10.6925
を言って	-10.6941
荷	-10.6949
ルーン	-10.6953
割	-10.6954
打	-10.6958
到	-10.6959
祖	-10.6959
響	-10.696
捕	-10.696
条	-10.696
遺	-10.696
踊	-10.696
ランチ	-10.696
当事者	-10.696
堂	-10.696
イギリス	-10.696
ウォーター	-10.696
本格的な	-10.696
ブレッド	-10.696
ブラウス	-10.696
ミートボール	-10.696
沖縄国際映画祭	-10.696
こちら	-10.696
吊り下げ	-10.696
昔	-10.696
順序で	-10.696
はっきり	-10.696
シルエット	-10.696
ノイズ	-10.696
当然のことながら	-10.696
スムーズに	-10.696
トランザクション	-10.696
駅	-10.696
トレンド	-10.696
ガソリン	-10.696
ヘアドライヤー	-10.696
典型的な	-10.696
双	-10.696
編み針	-10.696
には適していません	-10.696
インスピレーション	-10.696
シクラメン	-10.696
クリトリス	-10.696
バレリーナ	-10.696
暖かさ	-10.696
ポータル	-10.696
レセプション	-10.696
符号	-10.696
かぎ針編み	-10.696
世紀	-10.696
フェラチオ	-10.696
リネン	-10.696
楽しく	-10.696
楽しめ	-10.696
ミント	-10.696
リモート	-10.696
いけない	-10.696
工程	-10.696
新しく	-10.696
と思った	-10.6961
営業	-10.6961
森林	-10.6961
コミュニケーションをとる	-10.6961
時間通りに	-10.6961
宝石類	-10.6961
マイクロ波	-10.6961
追いかけ	-10.6961
座席	-10.6962
を見てみましょう	-10.6962
人もいます	-10.6962
経路	-10.6963
祈り	-10.6963
ジョン	-10.6963
局所	-10.6963
ピーマン	-10.6963
より詳細に	-10.6963
ペースト	-10.6964
コーナー	-10.6964
連続	-10.6965
に入った	-10.6966
可能性が高い	-10.6966
乾かし	-10.6967
悪夢	-10.6967
有機	-10.697
胸部	-10.697
本質的に	-10.6971
を覆い	-10.6973
進化	-10.6974
を開始する前に	-10.6975
マスターズ	-10.6975
教えてくれ	-10.6975
小型	-10.6976
ように設計されています	-10.6976
ことが不可能である	-10.6976
合理的な	-10.6976
視聴者	-10.6977
もらえ	-10.6978
情報源	-10.6978
ハム	-10.6978
民間	-10.6981
原材料	-10.6981
当時	-10.6981
ロゴ	-10.6982
プロバイダー	-10.6988
眠る	-10.6989
に合わせて	-10.699
対話者	-10.6994
ミニ	-10.7
漏れ	-10.7001
導く	-10.7005
支払いシステム	-10.7008
楽しんで	-10.701
現実的な	-10.7011
引き出し	-10.7019
持ってくる	-10.7022
開いて	-10.7022
知り合いになる	-10.7028
を回避するために	-10.7037
▁この薬は	-10.7043
農家	-10.7076
として機能し	-10.708
安く	-10.7085
生きてい	-10.7098
燃え	-10.7105
ダブル	-10.7121
混ぜ	-10.7138
いかに	-10.714
後にのみ	-10.7146
もたらす	-10.7163
傷つけ	-10.7165
こそ	-10.7168
書かれた	-10.7178
を制限する	-10.7183
与えます	-10.7188
減らす	-10.7196
を覚えている	-10.7203
ままである	-10.7207
硬	-10.7259
台無しに	-10.7261
を挿入し	-10.7275
トレイ	-10.7282
を実行して	-10.7287
を探している	-10.7294
残ってい	-10.7306
問題が発生し	-10.731
頭の上	-10.7321
覆われ	-10.7325
変えることができます	-10.7396
を観察し	-10.7423
費	-10.7439
ことを意味し	-10.7443
若	-10.7445
提	-10.7453
を示している	-10.7457
有益	-10.7464
灰	-10.7464
を呼び出す	-10.7477
ソファ	-10.7482
財	-10.7483
霜	-10.7485
養	-10.7486
招	-10.7486
印	-10.7486
林	-10.7486
姿	-10.7486
やる気	-10.7486
典	-10.7486
クリエイター	-10.7486
戸	-10.7486
忠	-10.7486
美術館	-10.7486
イノベーション	-10.7486
バルコニー	-10.7486
チェコ	-10.7486
裕	-10.7486
詳しく	-10.7486
開口部	-10.7486
正常な	-10.7486
渇	-10.7486
と呼ぶ	-10.7486
モデム	-10.7486
取り扱い	-10.7486
噴	-10.7486
キャッチ	-10.7486
ッシング	-10.7486
数週間	-10.7486
結婚式	-10.7486
を埋める	-10.7486
衰	-10.7486
釣り糸	-10.7486
アルミニウム	-10.7487
モチーフ	-10.7487
核	-10.7487
を動かす	-10.7487
ステッカー	-10.7487
均一な	-10.7487
箔	-10.7487
折りたたむ	-10.7487
覚えておいて	-10.7487
ジャンル	-10.7487
テクニカル	-10.7487
ホルダー	-10.7487
弁護士	-10.7487
最低限の	-10.7487
高齢者	-10.7487
そういう	-10.7487
繰り返され	-10.7487
幼稚園	-10.7487
に到達する	-10.7487
カツレツ	-10.7487
ヌ	-10.7487
居心地の良い	-10.7487
終わった	-10.7487
アルカリ	-10.7487
ゴルフ	-10.7487
ホイル	-10.7487
縞模様	-10.7487
宗教	-10.7487
心理学者	-10.7487
静かな	-10.7487
資産	-10.7487
ぜひ	-10.7487
柄	-10.7487
を備えてい	-10.7487
ステンドグラスの窓	-10.7487
細かい	-10.7487
ための最良の方法	-10.7487
を思いつく	-10.7487
狩	-10.7487
収益	-10.7487
救助	-10.7487
財務	-10.7487
膨大な数の	-10.7487
欠けている	-10.7487
経営	-10.7487
レイヤー	-10.7487
に進みます	-10.7487
次いで	-10.7487
十字	-10.7487
悲しい	-10.7487
留め具	-10.7487
ベーキング	-10.7488
おろし金	-10.7488
ンディング	-10.7488
編成	-10.7488
勝利	-10.7488
権限	-10.7488
▁この段階では	-10.7488
負担	-10.7488
方が良いです	-10.7488
にアクセスし	-10.7488
皆さん	-10.7488
コーヒーメーカー	-10.7488
注がれ	-10.7489
浴室	-10.7489
敷地	-10.7489
で販売されている	-10.7489
配管	-10.7489
緑豊かな	-10.7489
多様化する	-10.7489
ぶら下がっている	-10.7489
開放	-10.749
を表す	-10.749
集約	-10.749
包まれ	-10.749
コントロールパネル	-10.7491
なくなった	-10.7491
直面する	-10.7491
新聞	-10.7492
塗られた	-10.7492
づける	-10.7492
絶望	-10.7493
少年	-10.7493
マークアップ	-10.7493
作家	-10.7493
トルコ	-10.7493
声明	-10.7494
軽量	-10.7495
クリーミーな	-10.7495
サロン	-10.7495
マーカー	-10.7496
シールド	-10.7496
生命	-10.7497
強制的に	-10.7497
地位	-10.7498
をオフにする	-10.7498
終わりまで	-10.7498
プリセット	-10.7501
マクロ	-10.7502
厚紙	-10.7502
を取り付けます	-10.7502
活気	-10.7503
ツリー	-10.7504
直後に	-10.7504
ある程度	-10.7504
の完全性	-10.7505
コツ	-10.751
いいえ	-10.7517
彼の妻	-10.7518
離れている	-10.752
ことを提案し	-10.7521
敏感な	-10.7523
感じられ	-10.7527
のをやめる	-10.7528
マスタード	-10.7532
に相談する	-10.7534
簡単になります	-10.7535
上がる	-10.7536
を手配する	-10.7547
に従事している	-10.7555
登る	-10.7564
形成される	-10.7587
そこ	-10.7588
注目を集め	-10.7603
に関連している	-10.7624
といえ	-10.7644
を達成し	-10.7659
それらのそれぞれ	-10.7662
知らない	-10.7668
を構成する	-10.7671
にある場合	-10.7682
を保証し	-10.769
は非常に簡単です	-10.7693
送られ	-10.7699
服を着	-10.7714
乾いて	-10.7737
なるまで	-10.7755
大きくなる	-10.7789
に依存し	-10.779
を調整し	-10.7794
を提示し	-10.7801
に基づい	-10.7823
異常	-10.7825
耐える	-10.783
燃える	-10.7847
集める	-10.7858
を設置する	-10.7859
ようになりました	-10.7868
一歩	-10.7882
種類	-10.7891
ようになった	-10.7915
を読んで	-10.7924
デジタル化	-10.7929
注意を払	-10.7947
を許可し	-10.7964
加え	-10.7964
補充	-10.7966
心理的	-10.7978
茶	-10.8012
を破壊する	-10.8017
美味しく	-10.802
脇	-10.8031
バイブレータ	-10.8032
菓子	-10.8035
臓	-10.8036
リフト	-10.8036
映	-10.8036
技	-10.8039
校	-10.804
奪	-10.804
を払う	-10.804
コテージ	-10.8041
ジェット	-10.8041
境	-10.8041
オリーブ	-10.8041
困	-10.8041
ブリッジ	-10.8042
酒	-10.8042
炉	-10.8042
腎	-10.8042
サーマル	-10.8042
欧	-10.8042
お父さん	-10.8042
奉仕する	-10.8042
玉	-10.8042
病原性	-10.8042
バスルーム	-10.8042
票	-10.8042
禁忌	-10.8042
ことを目的とした	-10.8042
コンセプト	-10.8042
句	-10.8042
まぶた	-10.8042
ボーナス	-10.8042
忙	-10.8042
枠	-10.8042
郷	-10.8042
鬼	-10.8042
同僚	-10.8042
疹	-10.8042
変わらない	-10.8042
カートリッジ	-10.8042
ストレージ	-10.8042
互換性	-10.8042
寄生虫	-10.8042
痛みを伴う感覚	-10.8042
立方体	-10.8042
づくり	-10.8042
愛好家	-10.8042
落ち着いた	-10.8042
薪	-10.8042
シロップ	-10.8042
ドラフト	-10.8042
▁さもなければ	-10.8042
鍵	-10.8042
オーディエンス	-10.8042
相互作用	-10.8042
ドレッシング	-10.8042
役に立ち	-10.8042
数ヶ月	-10.8042
醜	-10.8042
冒険	-10.8042
極めて	-10.8042
みじん切り	-10.8042
コラーゲン	-10.8042
ソビエト	-10.8042
諸	-10.8042
貝	-10.8042
を任命	-10.8042
引っ張り	-10.8042
闘争	-10.8042
噴霧	-10.8042
大切な	-10.8042
祝福	-10.8042
何度も	-10.8042
すごく	-10.8042
固有の	-10.8042
を低下させる	-10.8042
あふれ	-10.8042
を愛する	-10.8043
独創的	-10.8043
を待っています	-10.8043
領土	-10.8043
ダンベル	-10.8044
欲望	-10.8044
パスポート	-10.8044
途中で	-10.8044
磁石	-10.8044
ワックス	-10.8044
爆発	-10.8044
ガーゼ	-10.8045
蒸発	-10.8045
包帯	-10.8045
客室	-10.8045
簡単かつ	-10.8045
論文	-10.8045
抗菌	-10.8046
基板	-10.8046
トラック番号	-10.8046
フレームワーク	-10.8046
原料	-10.8047
読み取り	-10.8047
ランタン	-10.8047
チキンスープ	-10.8048
大いに	-10.8049
等しい	-10.8049
わけではな	-10.8049
ブランク	-10.805
数日間	-10.805
カーテン	-10.805
ヒール	-10.805
小片	-10.8051
中心部	-10.8053
祭り	-10.8054
文学	-10.8055
手袋	-10.8055
予め	-10.8055
わせる	-10.8055
ならではの	-10.8055
高温	-10.8055
ビーム	-10.8058
ページ番号	-10.8058
との接触	-10.8058
パスタ	-10.8063
を完成させ	-10.8063
生理学的	-10.8063
浄化	-10.8064
ミラー	-10.8064
ガム	-10.8064
を必要としています	-10.8064
原子	-10.8064
シーム	-10.8065
ピット	-10.8066
ございます	-10.8068
米国	-10.8073
アニメ	-10.8078
直感	-10.8078
考える価値があります	-10.8086
見ることができるように	-10.8086
パイク	-10.8098
全国	-10.811
体重を減らす	-10.8126
解放され	-10.8128
見逃し	-10.8133
という点で	-10.8138
を起動する	-10.8142
を改善し	-10.8165
いただける	-10.8192
を検索し	-10.82
平面	-10.822
処理され	-10.8231
をブロックする	-10.8237
劣	-10.8241
ファー	-10.8243
硬く	-10.826
方法がわからない	-10.8283
消える	-10.8285
を信じて	-10.8288
を行ってい	-10.8309
タイムリーに	-10.8314
ませ	-10.8319
排除され	-10.8319
作ることができる	-10.8325
を経験する	-10.8348
に接着され	-10.835
の底に	-10.8351
ネットワークに接続	-10.8356
事項	-10.8365
であると考え	-10.8381
を勉強し	-10.8399
持っていた	-10.841
厚	-10.8418
に適してい	-10.8442
危険性があり	-10.846
コンタクト	-10.8475
に問題がある	-10.8532
長期間	-10.8561
提供されている	-10.8579
に塗布	-10.859
に対し	-10.8601
おめでとうございます	-10.8603
具体的	-10.8607
借	-10.862
媒	-10.862
昇	-10.8626
為	-10.8626
殻	-10.8627
屈	-10.863
スモーク	-10.863
舌	-10.863
随	-10.863
コンサート	-10.863
勢	-10.863
鋼	-10.863
オーストラリア	-10.863
バーベリン	-10.863
醸	-10.863
剃	-10.863
怖	-10.863
興味深く	-10.863
航空機	-10.863
廃棄物	-10.863
担当者	-10.863
東京モーターショー	-10.863
翼	-10.863
を補完する	-10.863
インタビュー	-10.863
シャワー	-10.863
託	-10.863
キノコ	-10.863
ジーンズ	-10.863
大胆な	-10.863
残留物	-10.863
遠隔	-10.863
ナトリウム	-10.863
フレンドリーな	-10.863
大丈夫	-10.863
躍	-10.863
カーソル	-10.863
クラフト	-10.863
シャットダウン	-10.863
スポンサー	-10.863
澱粉	-10.863
豪華な	-10.863
ヒーロー	-10.863
描かれています	-10.863
身近な	-10.863
隅	-10.863
革新的な	-10.863
“	-10.863
ことはお勧めできません	-10.863
に準拠し	-10.863
を捕まえ	-10.863
マグネシウム	-10.863
丸みを帯びた	-10.863
描かれている	-10.863
泌	-10.863
つまようじ	-10.863
ヒーター	-10.863
クリーナー	-10.863
経験の浅い	-10.863
に悪影響を及ぼす	-10.863
ココナッツ	-10.863
スエード	-10.863
を克服する	-10.863
カッテージチーズ	-10.863
コロシアム	-10.863
バックグラウンド	-10.863
巧	-10.863
恒久的な	-10.863
ポートフォリオ	-10.863
トランス	-10.863
鳴	-10.863
サークル	-10.863
フレンチ	-10.863
紅茶	-10.863
を奪う	-10.863
目に見えない	-10.863
オランダ	-10.863
もともと	-10.863
思いやり	-10.863
資格	-10.8631
広範囲の	-10.8631
遅延	-10.8631
兵士	-10.8631
基盤	-10.8631
幻想	-10.8631
静脈	-10.8631
推進	-10.8631
財政	-10.8631
真剣に	-10.8631
記号	-10.8631
を用いた	-10.8631
祖母	-10.8631
骨盤	-10.8632
端末	-10.8632
もしくは	-10.8632
補給	-10.8632
進歩	-10.8632
技法	-10.8632
持続可能な	-10.8632
ハンマー	-10.8633
いただけます	-10.8633
女優	-10.8633
スラブ	-10.8634
を終え	-10.8634
心拍	-10.8634
ツアー	-10.8634
片側	-10.8634
障壁	-10.8634
書き込み	-10.8635
背面	-10.8635
推定	-10.8635
歯ブラシ	-10.8635
報告書	-10.8635
のどちらか	-10.8635
プラハ	-10.8636
お問い合わせください	-10.8636
模様	-10.8636
事務	-10.8636
時間を過ごす	-10.8637
息子	-10.8637
すぎて	-10.8637
アパートメント	-10.8638
交流	-10.8638
折り目	-10.8639
シャープ	-10.8639
フラット	-10.8639
産生	-10.864
指導	-10.8641
手続き	-10.8641
方法を教えてください	-10.8642
ディナー	-10.8642
目に見える	-10.8643
成形	-10.8644
細部	-10.8645
ホスト	-10.8647
望ましい結果	-10.8651
影響を受ける	-10.8652
だからこそ	-10.8653
コープ	-10.8655
正直	-10.8657
横方向	-10.8659
ていなくても	-10.866
を促進し	-10.8682
てみる	-10.8687
口の中に	-10.869
を出る	-10.8692
を発展させ	-10.8707
を強化し	-10.8722
に関連付けられている	-10.8745
を提示する	-10.8763
検出され	-10.8768
を敷設する	-10.879
に挿入され	-10.8802
満たす	-10.882
訪れる	-10.8873
腫れ	-10.8882
ようになり	-10.8893
を可能にする	-10.89
ことを覚えてい	-10.8925
の本質	-10.8926
依存しています	-10.8935
を気にし	-10.894
に保つ	-10.8962
本質は	-10.8971
独立	-10.898
超	-10.9001
繰り返す	-10.9021
知っていて	-10.9039
増やす	-10.9054
求め	-10.9061
を切断し	-10.9081
上がって	-10.911
を測定し	-10.9122
以	-10.9126
に関連付けられ	-10.9141
取り出し	-10.9197
をもって	-10.9198
きっと	-10.9236
視聴	-10.9238
不要	-10.9245
肢	-10.9248
拍	-10.9252
激	-10.9252
駆	-10.9253
領	-10.9254
純	-10.9255
放射	-10.9255
兵	-10.9255
パソコン	-10.9255
弁	-10.9255
ニッポン	-10.9255
梨	-10.9255
冠	-10.9255
優秀な	-10.9255
叩	-10.9255
ドキュメンタリー	-10.9255
孤	-10.9255
尻	-10.9255
ニッチ	-10.9255
悔	-10.9255
可能性が最も高い	-10.9255
エスプレッソ	-10.9255
トウモロコシ	-10.9255
フレッシュ	-10.9255
不利な点	-10.9255
忠実な	-10.9255
痔	-10.9255
エンドウ豆	-10.9255
勤	-10.9255
探求	-10.9255
▁ご覧のとおり	-10.9255
地下鉄	-10.9255
家族全員	-10.9255
気管支	-10.9255
粗	-10.9255
アレルゲン	-10.9255
エージェント	-10.9255
センチメートル	-10.9255
杖	-10.9255
謎	-10.9255
過酸化物	-10.9255
カレンダー	-10.9255
スコッチ	-10.9255
スパチュラ	-10.9255
リムーバブル	-10.9255
藤	-10.9255
ジェネレータ	-10.9255
エレガントな	-10.9255
バリエーション	-10.9255
フラスコ	-10.9255
理にかなってい	-10.9255
インサート	-10.9255
ヨーグルト	-10.9255
可用性	-10.9255
塵	-10.9255
旋	-10.9255
箸	-10.9255
送ってください	-10.9255
過酸化水素	-10.9255
を犠牲にして	-10.9255
を遮断する	-10.9255
カモミール	-10.9255
グラインダー	-10.9255
フロア	-10.9255
マルチメータ	-10.9255
支払われ	-10.9255
サスペンション	-10.9255
スタイリング	-10.9255
利用規約	-10.9255
品揃え	-10.9255
アヒル	-10.9255
が付いている	-10.9255
にやって来	-10.9255
壮観な	-10.9255
慣れている	-10.9255
が完了したら	-10.9255
ょ	-10.9255
パウダー	-10.9255
融資	-10.9255
配慮	-10.9255
優しさ	-10.9255
温かい	-10.9255
▁その事実は	-10.9256
沈黙	-10.9256
捕獲	-10.9256
研磨	-10.9256
生徒	-10.9256
を務め	-10.9256
切り取られ	-10.9256
警察	-10.9256
虐待	-10.9256
を渡す	-10.9256
を無視する	-10.9256
論理的	-10.9256
の作り方	-10.9256
郵便局	-10.9256
滅菌	-10.9256
光沢	-10.9256
プリンタ	-10.9256
厳しく	-10.9256
中程度の	-10.9256
を増やし	-10.9256
舞台	-10.9256
任命され	-10.9256
に置き換えられ	-10.9256
寒い季節	-10.9256
仮定	-10.9256
昼食	-10.9257
間隔	-10.9257
と言います	-10.9257
ハードドライブ	-10.9257
乾いた咳	-10.9257
やすさ	-10.9257
集まる	-10.9257
文脈	-10.9257
コピーペースト	-10.9257
記述	-10.9257
競合	-10.9257
嘘をつ	-10.9257
ハイキング	-10.9258
食欲	-10.9258
移植	-10.9258
ワーム	-10.9258
放射線	-10.9258
収縮	-10.9258
リダイレクト	-10.9258
裏側	-10.9258
カウンター	-10.9259
温度計	-10.9259
ガイドライン	-10.9259
パニック	-10.9259
癒しの	-10.9259
拠点	-10.9259
まるで	-10.926
よく知られている	-10.926
黄金	-10.926
オフライン	-10.926
ファンシー	-10.926
どうやって	-10.9261
今度は	-10.9261
非難	-10.9261
セメント	-10.9262
出来事	-10.9262
教会	-10.9262
バルブ	-10.9263
受信機	-10.9263
単なる	-10.9263
不良	-10.9265
現金	-10.9266
を切り取ります	-10.9266
時刻	-10.9267
シーリング	-10.9269
不満	-10.927
現地	-10.9274
ブース	-10.9274
広がる	-10.9276
に達する	-10.9291
替え	-10.9314
この方法では	-10.9353
遅	-10.9362
はならない	-10.9364
をもたら	-10.9393
の世話をし	-10.9394
を消費し	-10.9417
を保護し	-10.942
に配置する	-10.9422
柔らかくなる	-10.9496
を共有する	-10.9513
飲む	-10.9517
進む	-10.9551
を停止する	-10.9582
を組み合わせて	-10.9588
含まれています	-10.9592
乾	-10.96
を分解し	-10.9608
を発行し	-10.9613
高級	-10.9645
支払う	-10.9646
アクセス可能	-10.9673
広がってい	-10.9674
を復元し	-10.9686
民族	-10.9724
を検出する	-10.9726
組み合わせることができます	-10.9733
生み出	-10.9769
減らすことができます	-10.9785
増加させる	-10.9838
の生活の中で	-10.9853
グラフ	-10.9866
役立ち	-10.987
を起動し	-10.9875
を表現する	-10.9891
ペース	-10.9899
織	-10.9904
最小限に抑え	-10.9908
クリーン	-10.9912
癒	-10.9918
粒	-10.9918
永	-10.9918
習	-10.9919
磁	-10.9919
簡	-10.992
徴	-10.992
珍	-10.992
輸	-10.9921
陥	-10.9921
パッド	-10.9921
被災地	-10.9922
福	-10.9922
来場者	-10.9922
コンサルタント	-10.9922
城	-10.9922
いろいろな	-10.9922
気候変動	-10.9922
モンテッソーリ	-10.9922
きっかけ	-10.9922
エッセイ	-10.9922
ティーンエイジャー	-10.9922
堆積物	-10.9922
シュート	-10.9922
リアルタイムで	-10.9922
教科書	-10.9922
薦	-10.9922
ベルベット	-10.9922
幾	-10.9922
根本的な	-10.9922
生物多様性	-10.9922
を遅らせる	-10.9922
ディレクティブ	-10.9922
ロータリー	-10.9922
休憩	-10.9922
を投げる	-10.9922
旨	-10.9922
コンテキストメニュー	-10.9922
ディレクトリ	-10.9922
比べ	-10.9922
牧	-10.9922
瞑想	-10.9922
を損なう	-10.9922
ヒンジ	-10.9922
メガネ	-10.9922
ワーキング	-10.9922
徹底的な	-10.9922
貸	-10.9922
おとぎ話	-10.9922
を装備し	-10.9922
セーター	-10.9922
申し上げます	-10.9922
アスタリスク	-10.9922
バスケット	-10.9922
ビニール	-10.9922
ファブリック	-10.9922
理想的には	-10.9922
ナビゲートする	-10.9922
宿	-10.9922
悩	-10.9922
晩	-10.9922
素晴らしく	-10.9922
インスタンス	-10.9922
エレガントで	-10.9922
汗	-10.9922
シミュレータ	-10.9922
症候群	-10.9922
績	-10.9922
鈍	-10.9922
ひどく	-10.9922
インデックス	-10.9922
カリカリ	-10.9922
思い出に残る	-10.9922
独創性	-10.9922
裸	-10.9922
鉢	-10.9922
プローブ	-10.9922
蘭	-10.9922
装備されてい	-10.9922
シェービング	-10.9922
並べ替え	-10.9922
急激に	-10.9922
手頃な価格	-10.9922
潜	-10.9922
ものは何もありません	-10.9922
クレンジング	-10.9922
コンピュータまたはラップトップ	-10.9922
井戸	-10.9922
もう一つの選択肢は	-10.9922
漁師	-10.9922
親愛なる	-10.9922
拘束され	-10.9922
前もって	-10.9922
を占有	-10.9922
サーマルペースト	-10.9922
仮想	-10.9922
落ち着く	-10.9922
を用意する	-10.9922
東洋	-10.9922
ペーパータオル	-10.9922
ほうがよい	-10.9922
時間を過ごし	-10.9922
修復	-10.9923
はんだ付け	-10.9923
と思いました	-10.9923
少数の	-10.9923
返済	-10.9923
結果として得られる	-10.9923
液滴	-10.9923
予想	-10.9923
飛ぶ	-10.9923
を作成できます	-10.9923
ライブラリ	-10.9924
当然	-10.9924
延長	-10.9924
と確信しています	-10.9924
受賞	-10.9925
混同し	-10.9925
ことを覚えておくことが重要です	-10.9925
ルーブル	-10.9925
暴力	-10.9925
害虫	-10.9925
をオンにする	-10.9925
交差	-10.9926
完成品	-10.9926
を有効にする	-10.9926
条件下で	-10.9926
ご紹介し	-10.9926
良質	-10.9927
プラグイン	-10.9927
飛行	-10.9927
に興味があります	-10.9928
ビーコン	-10.9929
失望	-10.9929
自分たち	-10.9929
即時	-10.9931
ヘルプ	-10.9931
を完了し	-10.9947
近づく	-10.9957
と主張し	-10.9959
に集中する	-10.9963
テーマ別	-10.9991
を証明する	-10.9992
を増加させ	-11.0018
に挿入し	-11.0037
見つけられ	-11.0052
を許可する	-11.0058
を破る	-11.0065
を可能にし	-11.0082
を吸収し	-11.0102
を罰する	-11.0124
が開始され	-11.0132
を着て	-11.0132
然	-11.0631
修	-11.0632
敷	-11.0632
号	-11.0634
衣	-11.0634
宅	-11.0635
儀	-11.0635
催	-11.0635
摘	-11.0636
塞	-11.0636
―	-11.0636
ぽ	-11.0636
健	-11.0636
亜	-11.0636
辛	-11.0636
幹	-11.0636
滝	-11.0636
袖	-11.0636
–	-11.0636
鬱	-11.0636
塔	-11.0636
追	-11.1337
築	-11.1368
蒸	-11.1397
効	-11.14
踏	-11.14
爆	-11.1402
洋	-11.1402
営	-11.1403
善	-11.1404
彫	-11.1405
房	-11.1405
係	-11.1405
瘍	-11.1405
河	-11.1405
拘	-11.1405
麦	-11.1405
括	-11.1405
肘	-11.1405
怪	-11.1405
ぱ	-11.1405
狂	-11.1405
恥	-11.1405
梱	-11.1405
看	-11.1405
襲	-11.1405
倉	-11.1405
浜	-11.1405
襟	-11.1405
帳	-11.1405
雲	-11.1406
腺	-11.1406
宜	-11.1406
項	-11.1761
古	-11.2176
景	-11.2225
済	-11.2231
快	-11.2233
夕	-11.2233
録	-11.2235
豚	-11.2236
競	-11.2236
摂	-11.2237
概	-11.2237
胞	-11.2238
虐	-11.2238
獲	-11.2238
黙	-11.2238
覧	-11.2239
哀	-11.2239
券	-11.2239
究	-11.2239
娘	-11.2239
桁	-11.2239
糊	-11.2239
還	-11.2239
銭	-11.2239
伏	-11.2239
埃	-11.2239
眉	-11.2239
廃	-11.2239
鑑	-11.2239
級	-11.2599
汚	-11.3051
慢	-11.3139
暴	-11.3143
件	-11.3144
衛	-11.3144
盤	-11.3145
透	-11.3145
悲	-11.3146
暖	-11.3146
写	-11.3147
院	-11.3147
滞	-11.3147
研	-11.3147
副	-11.3147
償	-11.3147
谷	-11.3148
久	-11.3148
縞	-11.3148
五	-11.3148
倍	-11.3148
奉	-11.3148
弦	-11.3148
錯	-11.3148
濁	-11.3148
掻	-11.3148
虹	-11.3148
枯	-11.3148
巣	-11.3148
胴	-11.3148
煎	-11.3148
絹	-11.3148
栓	-11.3148
訪	-11.4141
仲	-11.4143
由	-11.4145
幸	-11.4146
昼	-11.4146
比	-11.4146
池	-11.4146
則	-11.4147
幻	-11.4147
棄	-11.4147
勉	-11.4147
鎖	-11.4147
誌	-11.4148
旧	-11.4148
曝	-11.4148
壇	-11.4148
博	-11.4148
股	-11.4148
桃	-11.4148
刃	-11.4148
凹	-11.4148
洪	-11.4148
雌	-11.4148
憎	-11.4148
鋳	-11.4148
憤	-11.4148
雷	-11.4148
締	-11.5148
替	-11.515
詞	-11.5257
販	-11.5258
御	-11.5258
監	-11.5258
蓄	-11.5258
詳	-11.5258
幼	-11.5258
沿	-11.5258
砕	-11.5259
瀬	-11.5259
債	-11.5259
刀	-11.5259
豪	-11.5259
尚	-11.5259
偶	-11.5259
岐	-11.5259
殿	-11.5259
奥	-11.5259
艦	-11.5259
喧	-11.5259
縦	-11.5259
樽	-11.5259
六	-11.5259
崎	-11.5259
史	-11.5259
紋	-11.5259
姉	-11.5259
漏	-11.6404
排	-11.6486
即	-11.6492
恐	-11.6496
盛	-11.6498
程	-11.6503
謝	-11.6504
瞬	-11.6505
宮	-11.6505
英	-11.6507
診	-11.6507
剰	-11.6508
停	-11.6508
菜	-11.6508
荒	-11.6509
奨	-11.6509
秀	-11.6509
丁	-11.6509
狙	-11.6509
舎	-11.6509
啓	-11.6509
惨	-11.6509
旦	-11.6509
網	-11.6509
蛇	-11.6509
煩	-11.6509
畳	-11.6509
圏	-11.6509
宴	-11.6509
寛	-11.6509
賃	-11.6509
刊	-11.6509
鎮	-11.6509
燻	-11.6509
絨	-11.6509
墓	-11.6509
紡	-11.6509
頸	-11.6509
靭	-11.6509
芝	-11.6509
冒	-11.6509
贈	-11.6509
謙	-11.6509
弛	-11.6509
緒	-11.6981
寒	-11.7908
臭	-11.7917
識	-11.793
仮	-11.7934
添	-11.7934
益	-11.7935
臨	-11.7936
宣	-11.7936
井	-11.7936
筆	-11.7937
才	-11.7937
霧	-11.7937
季	-11.7937
牡	-11.7937
粋	-11.7937
愉	-11.7937
疎	-11.7937
奏	-11.7937
臀	-11.7937
隆	-11.7937
緻	-11.7938
雄	-11.7938
泊	-11.7938
櫛	-11.7938
錆	-11.7938
】	-11.7938
箋	-11.7938
擁	-11.7938
机	-11.7938
妹	-11.7938
顎	-11.7938
嵐	-11.7938
芳	-11.7938
喘	-11.7938
苗	-11.7938
馴	-11.7938
遣	-11.7938
趣	-11.96
測	-11.9601
籍	-11.9602
錠	-11.9603
危	-11.9603
慎	-11.9603
匠	-11.9603
紛	-11.9603
逸	-11.9603
郵	-11.9604
柔	-11.9604
紅	-11.9604
傍	-11.9604
寺	-11.9604
藻	-11.9604
熊	-11.9604
畑	-11.9604
峰	-11.9604
巡	-11.9604
朴	-11.9604
硝	-11.9604
恒	-11.9604
孫	-11.9604
•	-11.9604
七	-11.9604
傘	-11.9604
渋	-11.9604
竹	-11.9604
又	-11.9604
—	-11.9604
岡	-11.9604
鞭	-11.9604
奈	-11.9604
羅	-11.9604
億	-11.9604
潮	-11.9604
駐	-11.9604
酷	-11.9604
柱	-11.9604
仙	-11.9604
糞	-11.9604
ィ	-12.1272
豊	-12.1583
資	-12.1586
祈	-12.1594
粥	-12.1597
嘘	-12.1597
隔	-12.1598
漁	-12.1603
掲	-12.1604
歴	-12.1604
鉛	-12.1604
津	-12.1604
伊	-12.1604
顕	-12.1604
刑	-12.1604
拝	-12.1604
漠	-12.1604
麺	-12.1604
凸	-12.1604
賀	-12.1604
嫁	-12.1604
蒔	-12.1604
姓	-12.1604
掴	-12.1604
閣	-12.1604
瞳	-12.1604
芯	-12.1604
岳	-12.1604
湧	-12.1604
稀	-12.1604
脹	-12.1604
銘	-12.1604
佐	-12.1604
墜	-12.1604
烈	-12.1604
溺	-12.1604
卿	-12.1604
漂	-12.1604
砲	-12.1604
鹿	-12.1604
盆	-12.1604
漢	-12.1604
浄	-12.3994
敏	-12.4043
争	-12.4102
律	-12.4102
揚	-12.4103
肥	-12.4103
慮	-12.4103
晶	-12.4103
令	-12.4103
功	-12.4103
攻	-12.4104
枚	-12.4104
紀	-12.4104
八	-12.4104
寧	-12.4104
遂	-12.4104
蜂	-12.4104
矢	-12.4104
侶	-12.4104
〇	-12.4104
吉	-12.4105
況	-12.7251
ぜ	-12.7413
譲	-12.7428
挿	-12.7435
忍	-12.7437
凝	-12.7437
疫	-12.7438
克	-12.7438
符	-12.7438
彦	-12.7438
剣	-13.2426
求	-13.2428
供	-13.2433
駄	-13.2435
療	-13.2435
徒	-13.2435
刷	-13.2437
卒	-13.2437
暇	-13.2437
忌	-13.2437
ヶ	-13.2437
慰	-13.2437
戒	-13.2437
蜜	-13.2437
徐	-13.2438
伺	-14.1936
●	-14.1937
跳	-14.1938
諾	-14.1939
訣	-14.194
螺	-14.1941
蔑	-14.1942
萎	-14.1943
祥	-14.1944
盟	-14.1945
泄	-14.1946
樺	-14.1947
斬	-14.1948
拷	-14.1949
拓	-14.195
抹	-14.1951
披	-14.1952
巾	-14.1953
垣	-14.1954
嘲	-14.1955
嘆	-14.1956
叔	-14.1957
匹	-14.1958
倦	-14.1959
雛	-14.196
醒	-14.1961
辿	-14.1962
轄	-14.1963
軌	-14.1964
躊	-14.1965
躇	-14.1966
詫	-14.1967
蠣	-14.1968
苛	-14.1969
紐	-14.197
硫	-14.1971
矯	-14.1972
痰	-14.1973
疽	-14.1974
曖	-14.1975
昧	-14.1976
憲	-14.1977
悼	-14.1978
廷	-14.1979
寂	-14.198
塑	-14.1981
噌	-14.1982
嗜	-14.1983
喚	-14.1984
召	-14.1985
叙	-14.1986
蹴	-14.1987
舶	-14.1988
肋	-14.1989
竿	-14.199
瞭	-14.1991
炊	-14.1992
涯	-14.1993
殴	-14.1994
撹	-14.1995
彙	-14.1996
嵌	-14.1997
享	-14.1998
【	-14.1999
阻	-14.2
邦	-14.2001
艶	-14.2002
累	-14.2003
窒	-14.2004
渣	-14.2005
浪	-14.2006
札	-14.2007
敢	-14.2008
捧	-14.2009
挨	-14.201
拶	-14.2011
憧	-14.2012
憂	-14.2013
幣	-14.2014
呂	-14.2015
叶	-14.2016
叱	-14.2017
勾	-14.2018
倫	-14.2019
麗	-14.202
鍮	-14.2021
繍	-14.2022
江	-14.2023
是	-14.2024
惹	-14.2025
彿	-14.2026
彷	-14.2027
嫉	-14.2028
妬	-14.2029
勃	-14.203
伐	-14.2031
乙	-14.2032
※	-14.2033
鼓	-14.2034
謡	-14.2035
牢	-14.2036
焙	-14.2037
汎	-14.2038
曇	-14.2039
唾	-14.204
咽	-14.2041
丘	-14.2042
髄	-14.2043
隷	-14.2044
酬	-14.2045
迂	-14.2046
誓	-14.2047
褐	-14.2048
罹	-14.2049
綴	-14.205
秩	-14.2051
曜	-14.2052
播	-14.2053
尺	-14.2054
奴	-14.2055
噛	-14.2056
兼	-14.2057
串	-14.2058
訟	-14.2059
衡	-14.206
膀	-14.2061
脾	-14.2062
胱	-14.2063
粛	-14.2064
潰	-14.2065
杯	-14.2066
斑	-14.2067
惰	-14.2068
姜	-14.2069
妖	-14.207
嚢	-14.2071
冊	-14.2072
兄	-14.2073
飯	-14.2074
該	-14.2075
葬	-14.2076
肛	-14.2077
盲	-14.2078
猾	-14.2079
狡	-14.208
征	-14.2081
隙	-14.2082
錐	-14.2083
訂	-14.2084
肖	-14.2085
眺	-14.2086
玩	-14.2087
弧	-14.2088
幕	-14.2089
厄	-14.209
ゅ	-14.2091
ぷ	-14.2092
貿	-14.2093
窟	-14.2094
炒	-14.2095
溢	-14.2096
恩	-14.2097
弟	-14.2098
宛	-14.2099
妥	-14.21
唐	-14.2101
偉	-14.2102
些	-14.2103
餓	-14.2104
穿	-14.2105
禽	-14.2106
疼	-14.2107
猟	-14.2108
漑	-14.2109
泉	-14.211
捉	-14.2111
弯	-14.2112
咲	-14.2113
闇	-14.2114
醤	-14.2115
讐	-14.2116
蛍	-14.2117
皇	-14.2118
晦	-14.2119
昨	-14.212
攪	-14.2121
撤	-14.2122
搭	-14.2123
剖	-14.2124
仰	-14.2125
ゥ	-14.2126
帝	-14.2127
亡	-14.2128
乏	-14.2129
ぴ	-14.213
餃	-14.2131
雅	-14.2132
贅	-14.2133
誉	-14.2134
繋	-14.2135
箇	-14.2136
筒	-14.2137
涼	-14.2138
洞	-14.2139
廊	-14.214
遷	-14.2141
穫	-14.2142
稚	-14.2143
矛	-14.2144
牽	-14.2145
徳	-14.2146
侮	-14.2147
脆	-14.2148
暑	-14.2149
撫	-14.215
揮	-14.2151
弊	-14.2152
尽	-14.2153
嘔	-14.2154
剛	-14.2155
汲	-14.2156
怠	-14.2157
勇	-14.2158
遭	-14.2159
至	-14.216
架	-14.2161
挙	-14.2162
懐	-14.2163
嬉	-14.2164
堆	-14.2165
喰	-14.2166
倣	-14.2167
歪	-14.2168
楕	-14.2169
擦	-14.217
拌	-14.2171
寸	-14.2172
卓	-14.2173
募	-14.2174
貧	-14.2175
詐	-14.2176
泣	-14.2177
宙	-14.2178
宇	-14.2179
娯	-14.218
骸	-14.2181
預	-14.2182
践	-14.2183
肯	-14.2184
瘤	-14.2185
揃	-14.2186
愚	-14.2187
吊	-14.2188
冗	-14.2189
辱	-14.219
痙	-14.2191
攣	-14.2192
頑	-14.2193
賢	-14.2194
遇	-14.2195
脊	-14.2196
挑	-14.2197
唆	-14.2198
偏	-14.2199
俳	-14.22
俗	-14.2201
丈	-14.2202
釉	-14.2203
航	-14.2204
挽	-14.2205
崩	-14.2206
封	-14.2207
午	-14.2208
暮	-14.2209
控	-14.221
岸	-14.2211
奮	-14.2212
誠	-14.2213
欺	-14.2214
批	-14.2215
喪	-14.2216
雇	-14.2217
培	-14.2218
亀	-14.2219
稼	-14.222
痢	-14.2221
漫	-14.2222
迎	-14.2223
誇	-14.2224
翻	-14.2225
審	-14.2226
衆	-14.2227
橘	-14.2228
柑	-14.2229
斜	-14.223
帽	-14.2231
吹	-14.2232
遮	-14.2233
胎	-14.2234
椅	-14.2235
府	-14.2236
迷	-14.2237
揺	-14.2238
浅	-14.2239
懸	-14.224
壌	-14.2241
鉱	-14.2242
賊	-14.2243
濯	-14.2244
殊	-14.2245
吐	-14.2246
叫	-14.2247
摩	-14.2248
措	-14.2249
匂	-14.225
貢	-14.2251
循	-14.2252
貨	-14.2253
垂	-14.2254
睡	-14.2255
憶	-14.2256
耗	-14.2257
殖	-14.2258
遍	-14.2259
署	-14.226
縄	-14.2261
渉	-14.2262
捨	-14.2263
戚	-14.2264
飽	-14.2265
釈	-14.2266
講	-14.2267
潔	-14.2268
需	-14.2269
甲	-14.227
犠	-14.2271
牲	-14.2272
抵	-14.2273
委	-14.2274
貯	-14.2275
舗	-14.2276
沖	-14.2277
径	-14.2278
尊	-14.2279
侵	-14.228
飼	-14.2281
酵	-14.2282
壮	-14.2283
遵	-14.2284
脅	-14.2285
填	-14.2286
衝	-14.2287
剥	-14.2288
釣	-14.2289
貼	-14.229
疲	-14.2291
漬	-14.2292
穀	-14.2293
災	-14.2294
濡	-14.2295
抱	-14.2296
承	-14.2297
序	-14.2298
併	-14.2299
訳	-14.23
届	-14.2301
督	-14.2302
郭	-14.2303
抽	-14.2304
距	-14.2305
貫	-14.2306
尋	-14.2307
稿	-14.2308
己	-14.2309
免	-14.231
妨	-14.2311
契	-14.2312
騰	-14.2313
膏	-14.2314
鹸	-14.2315
訓	-14.2316
誘	-14.2317
申	-14.2318
巨	-14.2319
埋	-14.232
抑	-14.2321
輝	-14.2322
徹	-14.2323
隣	-14.2324
致	-14.2325
抜	-14.2326
粧	-14.2327
兆	-14.2328
礎	-14.2329
如	-14.233
潤	-14.2331
継	-14.2332
魔	-14.2333
陽	-14.2334
希	-14.2335
璧	-14.2336
濃	-14.2337
援	-14.2338
械	-14.2339
庫	-14.234
央	-14.2341
詰	-14.2342
甘	-14.2343
妙	-14.2344
敗	-14.2345
拒	-14.2346
誕	-14.2347
婚	-14.2348
娠	-14.2349
討	-14.235
易	-14.2351
却	-14.2352
唯	-14.2353
責	-14.2354
穏	-14.2355
妊	-14.2356
我	-14.2357
迅	-14.2358
跡	-14.2359
緊	-14.236
拡	-14.2361
齢	-14.2362
範	-14.2363
繊	-14.2364
均	-14.2365
慣	-14.2366
努	-14.2367
絡	-14.2368
都	-14.2369
繰	-14.237
既	-14.2371
ゾ	-14.2372
扱	-14.2373
疾	-14.2374
演	-14.2375
普	-14.2376
掛	-14.2377
働	-14.2378
魅	-14.2379
依	-14.238
互	-14.2381
練	-14.2382
許	-14.2383
肪	-14.2384
ぞ	-14.2385
掃	-14.2386
芸	-14.2387
忘	-14.2387
溶	-14.2388
膚	-14.2389
維	-14.239
繁	-14.2391
判	-14.2392
操	-14.2393
紹	-14.2394
奇	-14.2395
候	-14.2396
頻	-14.2397
較	-14.2398
呼	-14.2399
番	-14.24
燥	-14.2401
康	-14.2402
整	-14.2403
析	-14.2404
晴	-14.2405
投	-14.2406
因	-14.2407
答	-14.2408
密	-14.2409
驚	-14.241
専	-14.2411
ゃ	-14.2412
般	-14.2413
従	-14.2414
規	-14.2415
描	-14.2416
患	-14.2417
購	-14.2418
処	-14.2419
覚	-14.242
更	-14.2421
深	-14.2422
験	-14.2423
向	-14.2424
勧	-14.2425
含	-14.2426
始	-14.2427
情	-14.2428
装	-14.2429
ォ	-14.243
ァ	-14.2431
韓	-14.2431
択	-14.2432
菓	-14.2433
確	-14.2433
接	-14.2434
僚	-14.2435
焦	-14.2435
ェ	-14.2435
哲	-14.2435
傑	-14.2435
将	-14.2436
顧	-14.2436
企	-14.2436
ュ	-14.2436
碑	-14.2436
瞑	-14.2436
閲	-14.2436
険	-14.2437
馳	-14.2437
寿	-14.2437
珠	-14.2437
喫	-14.2437
澱	-14.2437
必	-14.2437
宗	-14.2437
憩	-14.2437
崇	-14.2437
往	-14.2438
須	-14.2438
昆	-14.2438
ッ	-14.2438
雰	-14.2438
